ffff
0000
0000
000c
0000
000d
0000
000d
0005
fff9
fff8
ffea
0012
fffb
fff7
000a
fff8
ffee
0004
0009
0006
ffff
fff8
000d
0007
000a
fffe
0003
0000
0009
0009
0005
0009
0004
fffb
fff5
0004
0002
0005
0008
0007
0002
0002
0004
0003
0008
0007
0000
ffff
fffb
0003
000a
0008
0000
000b
0001
0005
fffe
0006
0000
000a
0001
fffb
fffa
fffe
0006
fffb
0003
fffa
0008
fffe
fffd
fff8
0004
fffe
0008
fffe
fffa
fffe
fffe
0006
ffff
0005
0000
fffe
0000
0002
0002
0001
0007
000a
fffe
0004
0000
000b
fffe
0004
0001
0005
0001
000d
0001
0006
fffe
0005
0006
0000
0000
fffd
fffe
fff6
000d
0000
0002
000a
fffe
fffd
fffe
0003
fff9
0005
fffe
fffd
000c
ffff
0001
0004
0000
0008
fffd
0003
0004
0006
0002
0001
0003
0008
ffff
0002
fffb
0010
fffc
ffff
fffd
0008
fffe
0000
0003
0003
ffff
0005
000d
fffe
0009
0005
fffa
fffe
0000
0000
0008
fff8
fffe