memory_initialization_radix=16;
memory_initialization_vector=
0004,
ffd1,
ffa1,
0005,
0054,
0025,
004a,
0003,
0045,
0051,
0001,
0001,
003f,
0021,
0063,
ffed,
000d,
ffdb,
0046,
001b,
ffe8,
ffdf,
0023,
fffe,
004f,
ffdc,
003d,
0013,
ffa5,
0028,
0013,
ff98,
ffbf,
0075,
0039,
ffd0,
0003,
0031,
003a,
002d,
0051,
003f,
ffe5,
000c,
0051,
ffb3,
ffa4,
ffa1,
0009,
0036,
fff1,
0038,
0030,
0022,
000e,
001c,
0008,
0059,
0026,
004e,
fffc,
fff1,
0051,
0008,
0027,
0048,
0004,
0010,
002a,
ffac,
ffa2,
ff97,
ffec,
fff4,
fff7,
ffd9,
000c,
ffe7,
fff3,
ffe8,
0006,
ffeb,
fff9,
003b,
ffda,
ffe2,
ffe3,
ffda,
fffa,
0008,
001c,
ffee,
001a,
ffcb,
0019,
0010,
ffdf,
ffe4,
0045,
fff8,
0025,
fff9,
ffee,
0013,
0010,
ffdd,
0039,
000e,
0000,
0028,
ffeb,
002b,
0033,
0017,
ffd5,
0018,
0011,
ffb4,
ffec,
fff7,
ffc3,
ffc3,
0017,
ffd5,
ffd7,
000b,
fff3,
ffeb,
0009,
fff1,
0028,
000f,
fff1,
0018,
ffef,
0001,
ffdc,
ffcd,
fff9,
ffd8,
ffd3,
0008,
fff0,
fff1,
ffd5,
002e,
0034,
ffc0,
ffd5,
fff2,
0038,
0046,
fff1,
0037,
0036,
0022,
fff8,
ffe8,
0022,
0019,
ffd7,
fff4,
0010,
0014,
0001,
ffca,
fff9,
fff9,
000b,
001e,
ffee,
ffae,
fffa,
ffef,
002b,
0027,
0027,
004d,
000e,
0036,
fffa,
0036,
0024,
ffee,
ffc4,
fff0,
fff6,
ffd6,
0017,
ffe1,
ffd7,
ffe7,
000f,
0024,
fff1,
004f,
001a,
0000,
001f,
0016,
0032,
ffb5,
ffcd,
000a,
0021,
ffd5,
ffdc,
0048,
004e,
0034,
001b,
0018,
0055,
ffc1,
0012,
0031,
0000,
0010,
0001,
0040,
001c,
001c,
0048,
fffa,
fff2,
fff9,
fff5,
0007,
ffe8,
fff2,
002e,
0037,
0004,
002b,
ffc7,
ffed,
fff7,
001c,
ffe6,
ffef,
002b,
0013,
0009,
fff9,
ffc8,
ffde,
ffd6,
0007,
fffc,
0000,
0004,
fff2,
ffcb,
ffda,
ffc5,
fff1,
fff6,
fffc,
0013,
001f,
ffed,
0025,
ffe1,
0006,
0011,
002f,
002d,
001b,
0026,
0015,
ffe1,
ffe1,
0015,
0007,
fff5,
002e,
003b,
0011,
002d,
0063,
0019,
0000,
0008,
ffe4,
fff5,
0011,
fff5,
0028,
002e,
0007,
0027,
002b,
002a,
000c,
ffed,
0043,
0031,
fff4,
fffb,
ffde,
0000,
000f,
000c,
fff6,
fffb,
000b,
0011,
fff8,
000c,
0020,
fff9,
ffe7,
ffec,
0030,
0005,
0021,
000b,
001e,
0019,
003a,
0019,
0029,
fffc,
0048,
ffeb,
ffd8,
002b,
0001,
ffe9,
0002,
fffb,
0000,
fff3,
003a,
0023,
002d,
ffca,
0007,
ffe3,
ffea,
0001,
003b,
ffd2,
fff3,
ffe5,
0039,
fff5,
0005,
0020,
ffea,
ffd8,
000d,
0008,
0024,
002a,
001d,
0023,
0012,
0035,
ffde,
002f,
fffc,
ffb3,
fffc,
0000,
ffba,
0026,
ffec,
ffef,
0039,
ffff,
ffd9,
0032,
ffef,
ffd8,
003a,
001d,
ffeb,
001f,
0040,
fffa,
fff7,
001a,
ffc8,
0026,
001e,
ffd6,
0025,
0013,
002a,
0018,
0045,
0009,
001a,
0038,
0035,
000e,
fffb,
ffcb,
0029,
ffc6,
ffdf,
0011,
ffee,
ffeb,
ffcd,
ffee,
ffec,
001c,
0026,
0001,
ffec,
fffd,
000d,
000d,
0000,
000d,
fffc,
000e,
fffa,
001f,
002d,
ffe4,
ffd5,
0018,
fffb,
ffdf,
fffc,
0016,
0014,
0013,
000a,
fff0,
0003,
ffe2,
002e,
0016,
fff8,
ffc4,
0012,
003c,
0014,
fffe,
ffc6,
fffa,
ffff,
fffd,
ffe9,
001a,
0010,
0019,
0029,
ffeb,
0020,
fff2,
0022,
0019,
000d,
fff6,
0009,
fff6,
fff7,
0002,
0018,
fff7,
ffd0,
0009,
0033,
002d,
ffe0,
ffca,
0025,
001f,
002a,
0015,
0025,
0011,
ffb4,
ffd4,
ffda,
0000,
ffcb,
ffe3,
ffbd,
0001,
fffc,
0016,
ffdf,
ffe4,
0018,
fff1,
ffef,
000f,
000b,
0012,
ffae,
ffb7,
0004,
002a,
0020,
0008,
ffe6,
0020,
0000,
003d,
0005,
0012,
000b,
0013,
fffa,
ffd7,
ffe6,
0012,
0029,
001e,
ffe6,
fffd,
ffff,
001a,
fff7,
ffc4,
0024,
000d,
ffe8,
0015,
0007,
000d,
ffff,
ffcd,
000a,
0008,
0000,
000b,
0032,
0016,
ffef,
002d,
ffc2,
ffaf,
ffe4,
ffdf,
0025,
0032,
0029,
000e,
000b,
ffbc,
000b,
0018,
003d,
fffc,
0022,
002b,
ffd1,
0008,
fffe,
fffe,
ffb7,
001a,
000d,
0004,
ffe9,
ffe9,
fffa,
ffff,
0006,
0003,
0045,
fff7,
ffd8,
0010,
0012,
0012,
fffd,
ffed,
002e,
ffbe,
ffca,
ffeb,
002b,
0011,
ffee,
fffd,
0046,
fffa,
ffc4,
ffec,
0010,
001f,
fff2,
ffb8,
0000,
0013,
0000,
ffd7,
ffc7,
ffff,
ffd9,
ffef,
ffcd,
0028,
002f,
000c,
ffee,
001b,
000f,
003f,
0014,
002f,
fffd,
0023,
0030,
ffaa,
ffc0,
0031,
0023,
0005,
ffc2,
0007,
0012,
fff4,
0014,
0003,
ffa7,
0061,
0056,
0027,
002e,
0002,
0022,
ffa9,
ffeb,
ffed,
fffe,
0003,
ffb8,
fff0,
fff9,
0024,
0030,
004f,
003d,
0006,
ffec,
0032,
0017,
ffd6,
ffdf,
0013,
0003,
002d,
0019,
0043,
0009,
0025,
0012,
fff5,
0016,
ffd6,
ffe2,
000a,
ffed,
0007,
ffd4,
ffe6,
0001,
0019,
0015,
0031,
ffff,
fffd,
fffa,
0002,
0019,
002f,
004c,
004d,
fff5,
ffe6,
002e,
ffff,
ffe5,
0006,
000e,
0001,
ffda,
ffd1,
0023,
fff7,
0017,
000c,
0031,
fffa,
0040,
002c,
0037,
ffc0,
0027,
ffed,
ffcb,
ffcf,
ffdd,
ffe1,
ffd9,
000c,
0017,
ffff,
000b,
ffe9,
0031,
0016,
ffe1,
0041,
001e,
002d,
001a,
0011,
ffda,
ffb1,
ffde,
000b,
ffce,
000c,
0004,
0004,
0035,
003e,
0024,
001c,
000d,
fffe,
ffe2,
fffa,
fff9,
ffd3,
0026,
0014,
001b,
000a,
fff1,
fff4,
ffe6,
0013,
fff4,
ffe1,
ffe7,
ffd9,
ffdc,
0004,
0014,
002b,
ffd9,
ffdc,
0019,
ffd3,
ffe9,
ffd6,
ffec,
000f,
0012,
0004,
0021,
0016,
0006,
0016,
0023,
0020,
000c,
fff8,
0039,
ffe5,
fffe,
000d,
0021,
0006,
ffdd,
0001,
0015,
0002,
fff3,
0017,
0002,
001d,
000e,
0034,
fff3,
002d,
0016,
000b,
0027,
002c,
ffed,
0016,
0006,
ffe6,
ffca,
ffdc,
ffaf,
fff3,
ffe9,
fff7,
0005,
fff1,
0021,
003d,
0035,
ffd8,
ffe5,
ffc9,
ffe2,
fff5,
0012,
0022,
002c,
0000,
0006,
0012,
ffe1,
0000,
000f,
ffc1,
0000,
ffcf,
ffda,
ffcc,
fff7,
ffd1,
ffc7,
0037,
0037,
002f,
ffee,
ffee,
ffdd,
fff3,
ffe9,
fffa,
000b,
fff0,
ffc2,
ffdb,
ffca,
ffed,
fffe,
000d,
000b,
000d,
003c,
000e,
0034,
ffeb,
ffd1,
ffb7,
0003,
0025,
0029,
0048,
004f,
0043,
0019,
002b,
fff2,
000a,
ffe1,
001e,
0011,
001c,
fffd,
ffe4,
ffda,
0015,
ffbd,
000b,
ffc9,
000a,
0014,
002f,
001d,
0029,
fffe,
0017,
fff8,
ffec,
0026,
0031,
ffef,
ffd2,
0006,
ffe7,
001c,
002a,
0000,
fff6,
ffda,
ffd2,
fff3,
001a,
fff5,
fffd,
001d,
001f,
0010,
0012,
fffa,
002e,
0013,
0020,
000a,
fff3,
ffdd,
fffd,
ffd2,
ffe1,
ffd0,
fffa,
0008,
0000,
0022,
fff5,
ffe6,
ffec,
ffeb,
0031,
0025,
0023,
001b,
ffe2,
ffce,
fffe,
ffe4,
ffec,
fff5,
ffdc,
fffa,
ffdd,
0009,
0017,
0035,
004a,
fffa,
ffd3,
ffea,
ffde,
ffc3,
000e,
001b,
001c,
003b,
0001,
ffff,
0012,
ffd4,
ffc7,
ffe3,
0014,
000e,
002b,
ffd3,
fffd,
001e,
ffcc,
ffc1,
ffc3,
0016,
0013,
fff3,
fff9,
000b,
fffd,
ffea,
ffcf,
ffd9,
0006,
0020,
0036,
0011,
0000,
fff5,
ffdb,
ffbb,
ffd1,
0010,
0031,
0046,
ffe2,
000a,
ffeb,
0027,
0009,
0041,
0016,
0005,
001a,
ffda,
fffd,
0022,
fff8,
ffce,
ffeb,
0023,
fff6,
0025,
003b,
001a,
005c,
0026,
002c,
0015,
0026,
ffe7,
ffc2,
fff2,
ffe6,
ffed,
0002,
001b,
0023,
ffd0,
0009,
ffe9,
ffe9,
002f,
ffee,
fff4,
001a,
0023,
0003,
002d,
ffe5,
fffa,
0027,
ffed,
ffed,
003d,
0016,
ffda,
fffd,
001f,
fffb,
003b,
0038,
004d,
0059,
0044,
0032,
ffed,
0001,
002f,
fff3,
fff9,
0002,
0024,
ffee,
ffe2,
ffaf,
ffdf,
ff9a,
ffbc,
0006,
ffc9,
ffd2,
001d,
0025,
ffe8,
0010,
000a,
ffde,
0000,
0036,
fff2,
0013,
ffaf,
ffbc,
ffe5,
ffbe,
ffbf,
0000,
0034,
fff9,
fffe,
0003,
001d,
0015,
fff4,
ffec,
0026,
ffc2,
0011,
0028,
0024,
0013,
ffce,
ffe0,
0000,
0003,
ffeb,
ffd7,
fff8,
ffea,
000f,
0012,
fff3,
0008,
000b,
0004,
0023,
0008,
0019,
0006,
001c,
ffe6,
0014,
002e,
fff6,
ffee,
0005,
0029,
0011,
ffd6,
0027,
000a,
0010,
fffa,
0011,
000a,
ffda,
0009,
0025,
ffb5,
ffff,
0016,
ffed,
ffce,
0017,
ffe4,
0001,
000e,
002f,
ffed,
0033,
ffee,
0021,
000a,
fff3,
fff3,
0001,
0039,
000c,
ffd2,
fff4,
ffe2,
0002,
ffbc,
ffcf,
0000,
004a,
ffc2,
ffde,
0015,
0014,
ffe4,
ffd6,
0001,
0009,
0029,
ffb3,
0022,
0043,
ffda,
fffe,
000a,
ffdd,
0032,
0002,
ffeb,
000c,
000a,
0018,
fffa,
0041,
002a,
ffff,
0053,
005d,
0015,
003e,
0044,
001a,
ffc6,
0002,
0022,
ffed,
ffd7,
0034,
fffe,
ffc7,
ffe5,
0013,
ffa7,
ffff,
002a,
000b,
ffbb,
fff5,
0030,
fffc,
ffb9,
ffd6,
001c,
ffff,
ffd7,
fff5,
002c,
ffd9,
fff7,
0008,
0040,
0026,
000c,
000a,
0012,
ffc8,
ffdb,
0030,
000c,
000e,
fffc,
fffe,
fff9,
0000,
0004,
000b,
fff5,
0001,
0004,
0015,
0017,
fff6,
0004,
fff4,
0002,
ffee,
0008,
0013,
0021,
ffff,
ffe2,
fff4,
ffed,
fff1,
ffec,
0007,
ffe9,
fffd,
fff0,
000b,
0006,
000c,
fff2,
0001,
0003,
000a,
fff2,
fff6,
000d,
000d,
fff2,
0013,
ffe6,
ffe9,
fffe,
fff6,
ffff,
0002,
fff2,
fff2,
0004,
fff5,
0003,
fff6,
fffd,
ffeb,
000e,
001c,
ffff,
0013,
0006,
0017,
fffe,
0008,
ffed,
0009,
000a,
0012,
fff7,
ffff,
0000,
ffed,
000d,
fff7,
0013,
ffe7,
fff7,
0006,
0004,
fffb,
0006,
000b,
fffb,
001f,
000a,
0009,
fffe,
000d,
ffef,
0014,
0002,
fff3,
fff6,
0002,
fffe,
fffe,
0003,
0011,
0015,
0010,
0010,
fff7,
fff0,
0005,
ffeb,
ffea,
000b,
0011,
000f,
0004,
ffe5,
fff2,
ffe2,
0010,
000f,
ffeb,
fff1,
fff2,
fff4,
ffef,
0003,
0004,
ffeb,
fff2,
ffe4,
000a,
000d,
fff4,
000d,
fff5,
0013,
fff4,
fffa,
0000,
0000,
fffd,
fff4,
0008,
ffd9,
fff3,
fff0,
ffec,
ffec,
ffef,
ffe4,
ffe7,
001e,
000c,
fffa,
000a,
0011,
ffe5,
0007,
000f,
ffe8,
001d,
fff6,
0015,
0004,
000c,
ffe2,
fff1,
fffc,
0003,
fff4,
fff9,
000d,
fffc,
0009,
ffef,
fff2,
0011,
000d,
fff4,
fff7,
ffec,
000d,
fffe,
fff8,
0004,
0003,
0018,
000e,
0000,
ffed,
0001,
fff8,
0002,
fffc,
fff4,
0017,
ffff,
0000,
ffeb,
0009,
0010,
fffa,
ffdd,
001f,
0000,
fff1,
fff1,
ffff,
0003,
0014,
000e,
ffff,
fff1,
ffff,
0004,
0035,
fff2,
fffd,
ffea,
0014,
000d,
0003,
0014,
ffef,
0016,
0007,
fff0,
0018,
ffdb,
fffc,
ffe7,
000c,
fffa,
fffa,
ffcb,
fff9,
fff6,
0001,
ffff,
ffe2,
000e,
0004,
ffe7,
0000,
0005,
fffd,
fffc,
fff1,
0010,
0012,
000f,
ffea,
fffc,
0000,
0000,
000b,
0023,
0014,
fff1,
0000,
0005,
fff2,
fffa,
fff2,
ffed,
0007,
fffb,
fffe,
000a,
ffef,
fff7,
ffec,
ffff,
0013,
fff9,
000a,
ffdf,
fffb,
0011,
000d,
001e,
0000,
0023,
001f,
ffff,
fffb,
fffb,
ffeb,
000f,
0008,
000f,
0009,
fff9,
ffdc,
fffc,
fff9,
000d,
000e,
fff6,
fff1,
fff7,
fff5,
000a,
0005,
fff2,
0004,
0002,
fffe,
ffec,
ffdd,
fffb,
000d,
0008,
ffe9,
ffe9,
0004,
000e,
fffa,
fff2,
ffde,
fffe,
0018,
fff7,
0023,
ffe5,
0006,
fff5,
000f,
0019,
fff2,
0014,
ffe1,
fff6,
fff0,
001a,
ffe7,
0006,
000d,
0025,
ffeb,
fff3,
ffe0,
ffec,
001c,
fffd,
ffe9,
ffea,
ffff,
0011,
ffe8,
fff1,
fff2,
0005,
0015,
0027,
0000,
000c,
0016,
0003,
0000,
fff7,
0018,
000d,
000a,
0019,
001c,
000e,
ffff,
fff0,
fff5,
fff5,
fffb,
0006,
fff9,
001a,
000a,
fff8,
0008,
fff1,
0005,
0019,
0026,
0015,
0010,
fffc,
0025,
0016,
000f,
0001,
ffdc,
0015,
000d,
fffc,
fffd,
ffee,
ffe3,
0015,
0006,
0013,
0006,
000d,
ffe6,
0001,
001a,
fff4,
fff5,
fffc,
0018,
fff6,
0000,
ffda,
ffe8,
fffd,
fffa,
fff9,
ffe8,
0015,
000a,
000d,
001b,
ffec,
ffed,
fffa,
002b,
fff9,
0001,
0001,
000d,
fff2,
000c,
fff2,
000d,
000f,
0015,
0027,
000a,
000b,
fff3,
0013,
000d,
000f,
fffd,
0018,
0019,
0019,
0000,
fffb,
000b,
000e,
fffa,
001f,
0005,
0010,
000d,
fffb,
fff8,
ffe7,
001d,
fff1,
fffa,
001d,
0025,
fff6,
0009,
0002,
0016,
fff4,
fff1,
001a,
fffc,
0000,
000d,
000e,
0020,
0007,
0003,
fff2,
0013,
fff7,
0025,
ffff,
000d,
000e,
fff8,
000b,
ffe9,
0013,
0016,
ffe2,
0011,
fffb,
ffdf,
0009,
001d,
000c,
001d,
fff8,
0003,
0008,
0003,
0010,
ffdb,
001b,
001e,
fffe,
001f,
001b,
0000,
fff9,
ffff,
0008,
0019,
0021,
ffff,
0019,
000f,
fffa,
ffec,
0007,
fff9,
fff7,
fffc,
0038,
0007,
fffe,
001c,
000d,
0007,
001f,
fff5,
0013,
fffc,
0006,
0005,
ffe9,
0009,
0010,
001e,
0030,
0000,
ffea,
fffa,
0002,
0022,
ffeb,
0013,
000e,
0000,
0000,
ffe6,
ffec,
ffe7,
fff4,
fffa,
0013,
ffe6,
ffff,
0012,
ffe9,
fff6,
ffde,
0005,
ffed,
ffee,
0000,
ffec,
0007,
0004,
0002,
000d,
fff5,
ffee,
0008,
fff1,
000b,
fffc,
ffe2,
ffe4,
0008,
0010,
fffb,
0021,
001a,
0029,
fff9,
fff0,
0021,
0007,
ffea,
000f,
000c,
fff6,
0004,
000d,
0015,
fff6,
0014,
fffe,
ffff,
0008,
fff2,
000b,
001f,
0009,
ffe2,
ffee,
fffa,
fff7,
ffee,
fffd,
0010,
0001,
fff4,
fff6,
001f,
0006,
0001,
0005,
0004,
0008,
ffe8,
ffe7,
ffef,
ffda,
ffef,
fff1,
0014,
ffe9,
0000,
fffc,
fffa,
0018,
fff6,
ffe0,
0006,
fff8,
0006,
0010,
0001,
fff1,
0009,
fff0,
fffc,
0010,
0018,
0010,
fff4,
000c,
0010,
0004,
0000,
000b,
fffa,
000e,
fff5,
ffff,
000b,
0010,
001e,
000e,
0013,
000d,
0001,
0005,
fff0,
0023,
0016,
0012,
0010,
000b,
0012,
0020,
000d,
0021,
0011,
0005,
fff3,
fff7,
fffc,
0020,
0010,
fff0,
0018,
000f,
fffa,
fff2,
fff2,
0014,
000b,
fff6,
fff0,
fff3,
000e,
fffd,
ffee,
004a,
0003,
ffee,
0024,
000b,
0008,
ffed,
0006,
ffed,
0025,
ffff,
000f,
fff1,
000d,
0002,
fff3,
002e,
000f,
ffdc,
ffff,
000f,
0015,
000c,
ffe9,
0001,
001d,
000e,
0009,
000c,
fff7,
0006,
fff9,
0016,
0015,
ffef,
0002,
ffef,
0000,
0002,
fff5,
fff7,
fff4,
fff4,
ffe9,
0019,
fff7,
fff6,
0003,
0014,
ffea,
ffeb,
fffc,
0010,
fff4,
0004,
0016,
0008,
fff3,
0013,
fff7,
0015,
001d,
000c,
fff6,
0012,
0002,
000a,
0016,
0013,
fff4,
0039,
000f,
000e,
fff1,
000b,
000e,
0015,
ffef,
0009,
fff6,
0024,
fffe,
0007,
fff4,
000b,
0000,
ffe2,
001d,
ffd7,
001f,
0010,
ffea,
0028,
0000,
000d,
001b,
0028,
001b,
0004,
ffea,
0007,
000b,
fff7,
001d,
ffdc,
0014,
001a,
fff8,
0005,
ffee,
ffeb,
fff6,
003d,
0000,
0009,
0000,
ffe3,
001a,
000e,
0019,
fff2,
001c,
0014,
0007,
002a,
fff0,
ffe3,
ffe4,
ffef,
fff2,
fffc,
ffde,
ffeb,
001c,
0000,
001c,
fff8,
001f,
fffe,
ffef,
0004,
fff5,
0008,
ffe9,
001a,
0017,
ffe9,
0004,
ffe9,
fff7,
fff1,
fff0,
fff5,
0013,
fffc,
fff2,
ffef,
ffec,
000a,
0003,
000d,
ffee,
fff1,
0015,
000f,
0002,
ffff,
ffef,
0009,
fff9,
fff8,
0002,
fff6,
0006,
fff3,
fffb,
0008,
fff6,
001f,
000d,
ffec,
0004,
000f,
0006,
fff8,
fff9,
fffd,
0011,
0006,
ffff,
ffff,
ffed,
0021,
000c,
0002,
0007,
ffdd,
fff2,
0005,
000d,
0007,
0009,
000f,
0004,
0002,
0011,
000b,
ffe6,
002f,
0016,
000e,
fff5,
000c,
0004,
000c,
0009,
001f,
ffff,
0009,
000a,
0012,
fff1,
fffc,
fff1,
fffd,
0010,
001d,
ffdf,
ffc7,
fff1,
0024,
0017,
fff4,
ffea,
fff5,
ffd8,
0014,
000c,
0002,
fffe,
fff7,
fff6,
ffeb,
ffe9,
ffda,
0003,
0003,
000f,
002a,
0007,
0005,
ffee,
000f,
0015,
0005,
fff0,
0016,
fffb,
0001,
0008,
ffec,
ffff,
fff5,
0003,
ffff,
000d,
000d,
000d,
fff7,
fffc,
0000,
ffed,
001b,
fff4,
fff7,
000e,
ffe4,
000e,
fff9,
0009,
001b,
0004,
ffee,
ffe9,
fff9,
ffec,
000a,
ffe6,
000c,
ffeb,
ffe9,
0006,
0012,
fff6,
0000,
fff1,
0011,
ffe8,
ffff,
ffe0,
0010,
0012,
ffe0,
fff2,
0035,
fff1,
000b,
001a,
ffe6,
fff0,
fffd,
fff2,
fffb,
fffa,
ffe4,
0006,
0022,
fffd,
ffd3,
fff3,
000a,
fff9,
0000,
fffb,
ffe2,
ffe9,
0009,
0000,
fffd,
0013,
fffc,
fff9,
000c,
001a,
ffe0,
0000,
0016,
ffed,
0012,
fff9,
000c,
0001,
0008,
000d,
ffe7,
fff5,
0009,
fff1,
0000,
000b,
0001,
001c,
fff1,
fff0,
0008,
000f,
000e,
fffd,
fffd,
fff0,
ffe9,
fffa,
000a,
fffa,
fff1,
fffb,
0013,
fff8,
001f,
000a,
fff7,
fff3,
001d,
0004,
0009,
0007,
ffe4,
ffe1,
0000,
0003,
fff9,
0002,
fffb,
fff9,
0024,
ffe5,
ffe9,
ffe2,
001c,
0003,
0004,
000d,
0005,
fff8,
ffea,
ffef,
0026,
fffe,
ffdb,
0002,
0033,
ffe6,
ffe9,
ffe9,
fff0,
fffb,
fffa,
0000,
ffd7,
0014,
ffeb,
002f,
0000,
0001,
ffd0,
fffb,
0029,
001a,
ffe9,
0008,
001b,
0007,
fff5,
fffd,
ffe2,
001e,
001f,
0052,
0001,
0009,
ffea,
fffe,
0018,
fffd,
fffe,
fffc,
0007,
0000,
ffe7,
fff2,
ffff,
0022,
ffe6,
001f,
0010,
fff6,
001e,
0003,
fff6,
0005,
0012,
000b,
000b,
ffff,
fff2,
fff0,
000f,
0013,
fff9,
0022,
fff2,
ffeb,
0011,
fff1,
000d,
fff7,
0003,
fff3,
0000,
0008,
ffef,
000c,
fff9,
fff4,
ffea,
000e,
0005,
fff9,
fffe,
fff3,
0003,
fff3,
0010,
ffec,
000d,
ffe6,
ffed,
fff4,
ffff,
ffe8,
fffd,
fff9,
000c,
0007,
0006,
0009,
ffee,
fffc,
0009,
fff5,
fff1,
fff0,
ffe7,
ffe8,
0000,
0001,
000e,
0004,
ffef,
fff8,
fff0,
ffeb,
ffe9,
0012,
000d,
fff4,
fff5,
ffec,
ffef,
fff1,
ffef,
ffeb,
fff3,
ffee,
000a,
0011,
ffec,
ffe8,
ffff,
ffec,
0001,
0011,
ffe9,
ffe7,
000b,
fff3,
0003,
ffeb,
fff7,
000c,
fff8,
fff5,
ffed,
fff1,
fffd,
000b,
ffeb,
0013,
fffb,
0005,
0007,
0011,
0012,
0005,
ffec,
ffe8,
0007,
fffb,
fffa,
ffe9,
fff6,
ffea,
ffe9,
0017,
ffe5,
fff7,
fffa,
000b,
0007,
0008,
ffe9,
0013,
fff1,
fff1,
0002,
fff9,
0008,
fffc,
0004,
fff5,
0008,
0009,
000b,
000f,
0006,
fff7,
0009,
fffb,
fffb,
000e,
fff9,
0005,
0013,
0003,
0011,
fffa,
000b,
0009,
fff7,
fff8,
0004,
0004,
fff4,
0006,
fff4,
fff3,
fff9,
fff2,
fff4,
fff0,
fff3,
ffeb,
fff8,
fff9,
fffe,
fffa,
0014,
0005,
fff8,
fff5,
000e,
0012,
fff4,
ffec,
0008,
000e,
fff9,
fff8,
0016,
fff8,
fff9,
fff0,
000b,
0000,
ffef,
0014,
fffd,
ffec,
0003,
0012,
fff4,
0005,
fffd,
0002,
fff2,
fffe,
0014,
fffc,
0005,
ffed,
fffc,
0004,
fff6,
fffe,
0002,
fffd,
fffc,
fff2,
0001,
fff3,
0012,
ffff,
fff7,
0009,
0000,
000c,
fffd,
ffff,
0005,
0000,
000f,
000d,
fff1,
0013,
000d,
0003,
fff3,
fffb,
0006,
ffec,
0007,
0000,
0010,
000f,
000f,
fffc,
fff5,
ffe8,
0008,
000d,
0000,
fff0,
0011,
0012,
0000,
0000,
0005,
000a,
fff4,
0018,
0004,
fffc,
fff0,
fff6,
ffec,
000f,
fff7,
0003,
0007,
ffef,
0000,
ffe8,
fff6,
fff5,
0010,
000e,
000b,
ffec,
000f,
fff6,
ffee,
0001,
ffee,
fff1,
fff3,
fffe,
000e,
fff3,
0014,
fffb,
fff6,
0008,
ffe9,
ffee,
fff2,
ffe7,
ffe7,
fff5,
fff3,
0010,
fff6,
000f,
fffb,
0014,
000e,
0012,
ffe7,
ffe7,
fff1,
fff1,
0009,
fff1,
fffc,
fff7,
0002,
0007,
ffeb,
0003,
fff4,
0015,
ffea,
ffee,
ffe8,
ffeb,
fff7,
fff0,
000f,
fff6,
000e,
0006,
0007,
fff8,
ffec,
0012,
000b,
fff6,
0013,
0010,
fff9,
ffe5,
0012,
ffe9,
ffee,
ffe8,
0007,
fff4,
000b,
fff8,
fffc,
fffc,
fffa,
0014,
fff2,
ffea,
0006,
000a,
fffe,
000d,
ffec,
fff1,
fff2,
0014,
fffb,
0004,
000e,
0003,
0005,
fff1,
0011,
ffe6,
fff4,
0006,
ffea,
0007,
ffff,
fff4,
fff7,
0012,
0004,
ffe8,
000c,
fffe,
ffec,
ffff,
0005,
fffa,
fffb,
fffe,
0000,
ffe5,
ffe5,
fff4,
ffe7,
fff0,
ffef,
000c,
fff9,
000f,
0003,
0004,
0003,
fffc,
fff3,
ffea,
0004,
0003,
fff3,
fff2,
fff6,
ffec,
fff9,
0009,
0000,
0010,
ffff,
000b,
0002,
ffff,
0001,
fff3,
fffc,
0011,
0010,
0010,
ffeb,
0009,
ffe9,
0003,
0012,
fff7,
fffe,
0014,
000d,
000c,
ffe9,
fff8,
0010,
0000,
000a,
0005,
fffc,
0010,
fff5,
fff1,
000d,
0011,
fff3,
ffe8,
ffef,
0007,
0003,
0000,
0002,
fff0,
0007,
fff3,
fff2,
ffe8,
0004,
0010,
ffe7,
0004,
0008,
fff8,
ffff,
0007,
ffea,
0010,
0008,
0002,
000d,
fff0,
000e,
fffe,
0000,
0009,
0003,
0011,
ffeb,
fffb,
ffe7,
0008,
fff1,
ffeb,
fffe,
0013,
000a,
fff0,
0010,
000a,
0013,
000b,
0006,
0005,
fffb,
0015,
ffe8,
fff3,
ffe7,
fff9,
fff2,
ffea,
0000,
ffff,
ffeb,
fff3,
0009,
fff0,
fffe,
fff2,
000c,
fff5,
fff7,
ffeb,
0012,
ffff,
ffeb,
ffee,
ffef,
fffb,
0008,
0005,
fffa,
fff0,
ffff,
ffee,
0013,
0008,
0013,
fff9,
ffef,
000b,
000b,
fff0,
0000,
fff9,
0011,
fff0,
0000,
ffef,
ffef,
fff5,
fffc,
0012,
fffa,
0012,
0013,
0007,
ffed,
fffa,
ffeb,
0008,
fff1,
ffe9,
000f,
ffe9,
fffc,
0015,
ffea,
ffe6,
ffe8,
fff6,
ffe8,
0016,
0011,
0011,
0013,
0000,
ffe5,
0012,
000b,
0006,
0007,
0017,
000e,
ffed,
fff5,
0000,
0000,
fff6,
0012,
fffc,
ffeb,
0007,
000d,
0011,
0002,
ffee,
fff4,
fff7,
0003,
fff1,
0005,
0009,
0015,
fff0,
0022,
ffe9,
0003,
fff7,
fffb,
0016,
0022,
0007,
0011,
001a,
fff5,
0000,
fffa,
0016,
0012,
0000,
ffe7,
0012,
0001,
ffec,
000a,
000c,
000e,
fff7,
000f,
0005,
ffea,
0009,
ffe8,
0006,
0010,
0006,
ffff,
0004,
fffb,
0002,
fffa,
0003,
ffeb,
0005,
ffef,
0007,
000b,
ffe7,
ffcd,
ffeb,
ffed,
000c,
0000,
ffe3,
000f,
fff3,
ffea,
fffe,
0006,
000f,
fff7,
0011,
0003,
0016,
0000,
ffeb,
0015,
ffed,
0011,
fff5,
fffc,
fff5,
fff5,
0019,
0015,
0005,
ffff,
fffe,
fff7,
0011,
0005,
fffd,
0004,
ffee,
fffb,
ffec,
000a,
001f,
fff9,
000a,
001c,
fff6,
fffc,
000d,
0021,
0008,
fff7,
ffef,
0003,
0011,
0011,
000f,
fffe,
0014,
fffb,
0005,
fff4,
0010,
000b,
0018,
fffd,
0018,
000c,
0011,
fff9,
000a,
fffc,
0002,
0005,
fff5,
0007,
fffb,
ffeb,
ffff,
ffee,
000c,
ffe7,
ffe8,
ffe8,
0010,
0002,
ffec,
fffe,
ffe3,
fff4,
0008,
0001,
0008,
ffe5,
fffd,
fff6,
0000,
fffa,
ffea,
fffa,
0013,
0011,
fff3,
fff6,
ffe4,
0019,
fffb,
000e,
0000,
ffe6,
0014,
fff8,
0017,
0003,
0011,
0009,
fff5,
ffe9,
ffda,
fffd,
0007,
000c,
000f,
000b,
fffd,
0009,
000c,
fff3,
fffa,
001b,
0015,
001a,
fff2,
0011,
0019,
0000,
0005,
0002,
0001,
001f,
fff0,
0015,
ffec,
001b,
0001,
0022,
0015,
0005,
0012,
0018,
ffee,
fff4,
001a,
000e,
000a,
0016,
ffee,
fffb,
0000,
0002,
0012,
ffff,
ffe5,
fffa,
ffe8,
ffe5,
ffef,
000f,
0015,
fff8,
000f,
0014,
0006,
0000,
ffea,
fffd,
fffd,
ffdd,
0001,
0002,
0010,
fffc,
fff4,
0010,
fff9,
fff4,
0018,
fff5,
0000,
fff9,
ffea,
001e,
fffa,
ffd8,
0018,
ffec,
000c,
001f,
0010,
fff0,
ffef,
fff5,
0026,
001a,
000b,
ffec,
0014,
001e,
fff1,
fff4,
000a,
0001,
000b,
0014,
000b,
fff6,
0001,
fff5,
001b,
0015,
fff6,
fff7,
000d,
0017,
0011,
fffe,
ffea,
0003,
0009,
fff7,
000d,
ffff,
ffe1,
ffe9,
0013,
0000,
fffa,
0000,
0002,
fff3,
ffe4,
ffed,
ffed,
fff0,
ffe7,
fff1,
ffff,
fffc,
ffe7,
fff0,
fffe,
001a,
0006,
fff3,
ffef,
fff1,
000c,
0000,
0003,
0000,
ffe2,
0006,
0011,
ffe6,
fffe,
ffda,
ffd7,
fff8,
0006,
ffff,
ffc7,
0008,
fffe,
ffef,
0007,
ffe1,
ffed,
0018,
ffed,
0015,
ffec,
ffeb,
000e,
0009,
000a,
0008,
ffdd,
fff0,
fff4,
000d,
0001,
ffeb,
0000,
fff5,
0005,
fff4,
0001,
ffe3,
0017,
000b,
0018,
000a,
0001,
fffc,
000b,
0008,
000a,
fff5,
0017,
fffe,
fff8,
000a,
000f,
0011,
0012,
001c,
fff2,
000a,
001d,
0028,
fff7,
fff5,
fff4,
ffe7,
000f,
fff4,
001e,
fffc,
fff0,
000f,
0013,
0009,
000a,
fff2,
0001,
ffe9,
fff8,
ffe6,
0002,
ffef,
fff4,
fff1,
fffe,
fffb,
ffea,
000b,
fff8,
0002,
ffe2,
ffe9,
fffa,
0009,
000c,
ffe6,
fff5,
ffe3,
fff2,
ffee,
fffe,
0015,
0014,
ffd7,
0008,
0008,
fff1,
0005,
ffdc,
fff7,
0004,
ffd5,
fffd,
ffe6,
0018,
ffea,
001d,
0014,
fffd,
ffda,
ffe8,
000e,
0011,
000c,
ffe6,
ffda,
0016,
fffd,
fff6,
fff3,
001b,
001a,
fff2,
ffe7,
fffa,
fffb,
ffff,
fffc,
0003,
ffe4,
000c,
0004,
fff1,
ffe0,
ffff,
ffee,
0011,
fff4,
001c,
fffe,
0000,
000d,
0001,
fff9,
0005,
fffd,
fff3,
0005,
fff7,
ffd7,
0008,
ffd6,
fffd,
0001,
0002,
ffeb,
ffe2,
ffeb,
000e,
0004,
0006,
fffc,
fffb,
ffe5,
ffe7,
ffe1,
0003,
fff9,
0000,
ffe8,
fff9,
0009,
000d,
ffe4,
fff3,
0016,
ffe6,
0005,
0011,
fff3,
0015,
0011,
fffa,
0004,
0000,
000a,
ffe9,
000f,
0004,
fff8,
001a,
fff8,
ffef,
fff9,
0013,
fffa,
fffc,
0002,
0016,
0016,
0024,
001a,
fffd,
0000,
0000,
0014,
fffc,
0007,
0011,
fff4,
0003,
0017,
fff6,
fffe,
fff9,
001c,
001e,
fff9,
0023,
fff3,
ffee,
0007,
000e,
0004,
0006,
0015,
0009,
0012,
0014,
000b,
fff4,
fff9,
000e,
0014,
ffdd,
ffe5,
ffe5,
fff5,
000b,
0018,
fff0,
fffd,
ffe6,
fff3,
ffdf,
000b,
000b,
fff3,
000f,
ffe7,
ffd5,
fffa,
ffec,
0002,
ffee,
001a,
0011,
ffea,
fff8,
fff8,
000c,
ffe1,
000d,
ffef,
fff6,
fff0,
fff2,
001a,
fff2,
ffff,
ffef,
ffff,
0019,
000a,
ffee,
0002,
0007,
000a,
0000,
ffe4,
ffec,
ffff,
0006,
0015,
fff0,
0007,
ffe1,
0002,
001a,
0004,
ffed,
ffed,
0019,
000a,
fff4,
ffec,
fff3,
fff6,
0006,
000c,
0005,
0005,
ffef,
fffe,
fffc,
0007,
0005,
ffe9,
0018,
0002,
0008,
0010,
000c,
fff2,
fffd,
ffe1,
0013,
001f,
fff1,
0002,
0013,
0005,
0006,
ffe5,
0017,
0001,
000f,
000d,
000d,
0005,
ffea,
ffe8,
000a,
0015,
000f,
fff7,
fffd,
fffc,
0007,
ffe0,
000c,
000d,
0000,
fffb,
ffe8,
0008,
0007,
fff2,
000a,
0001,
fff0,
fff3,
0004,
0018,
ffe5,
fff9,
0006,
ffec,
ffe7,
0000,
fffe,
ffe9,
0000,
ffef,
0007,
ffff,
ffef,
ffe4,
fffe,
0022,
ffea,
0017,
ffeb,
fff2,
fffe,
fff6,
fffc,
0005,
000b,
fffd,
fff8,
0002,
ffed,
fff7,
ffe5,
fffc,
ffea,
fffe,
000c,
fff6,
fff8,
fff2,
fff4,
ffff,
ffeb,
fff9,
001a,
0000,
ffed,
ffe0,
0000,
0008,
ffd8,
fff4,
0010,
fff2,
0004,
fff8,
0004,
000a,
ffef,
0000,
001b,
fff8,
fff8,
fff6,
fff0,
fff4,
0003,
0008,
fff0,
0014,
001b,
0005,
000c,
ffee,
ffff,
ffe5,
001f,
0007,
ffef,
0006,
fffc,
ffff,
001a,
fff8,
fffe,
0006,
0001,
ffff,
0005,
0009,
0002,
fff1,
ffff,
0012,
fff8,
ffe0,
fff1,
ffee,
fff1,
fffe,
000e,
0003,
ffed,
fffa,
ffec,
0008,
ffe1,
ffea,
0007,
fff3,
fffb,
001f,
fffe,
fff7,
fffc,
fff9,
fffd,
fff7,
ffed,
0016,
ffdd,
ffda,
0018,
fffd,
000d,
ffd0,
000e,
0027,
fff5,
0014,
fff5,
ffe5,
ffe0,
fff3,
0009,
ffed,
ffff,
fff9,
0013,
0022,
0011,
fff3,
000f,
ffd9,
0018,
0003,
ffeb,
0016,
001d,
ffeb,
0017,
ffe5,
ffef,
0011,
0009,
fff5,
fff1,
0005,
0021,
0020,
0001,
ffed,
0009,
0021,
000f,
000a,
0010,
0001,
000b,
001b,
000b,
ffe2,
0010,
fffe,
0019,
fff9,
ffdc,
ffed,
001d,
fffc,
fff1,
0004,
ffed,
001f,
fff3,
ffe4,
001a,
fff8,
0008,
ffec,
0012,
fffc,
fff1,
0012,
fff7,
0014,
fff0,
0011,
ffff,
0002,
ffdc,
ffdd,
000e,
ffd9,
fff1,
ffe6,
0005,
0022,
0008,
fffd,
0007,
fffe,
0005,
ffff,
0000,
fff9,
fffe,
ffdb,
000e,
fff5,
001c,
0007,
0006,
001b,
ffed,
fff0,
001e,
ffe6,
ffed,
fff2,
fff8,
0003,
fff6,
fff6,
002f,
0015,
0000,
0002,
fffd,
ffd4,
ffff,
0004,
000c,
ffe1,
ffe6,
000e,
fff9,
0023,
fff9,
000c,
002a,
000a,
002a,
fffd,
fff0,
000a,
000c,
0014,
0007,
000e,
fff6,
0006,
0003,
0000,
0000,
0026,
0016,
ffeb,
ffef,
fffa,
fff2,
fffe,
fffc,
ffdf,
0011,
0013,
ffe4,
ffe9,
ffe9,
fff3,
0015,
fff9,
002e,
fff1,
ffe9,
0014,
fff7,
000d,
fffe,
ffcf,
ffe6,
ffe3,
fffb,
ffd2,
0008,
ffdb,
fff0,
fff0,
0006,
ffeb,
ffe7,
0027,
0000,
fffa,
0020,
ffde,
000d,
0005,
fff2,
ffeb,
ffed,
ffee,
0002,
0000,
fffc,
fff7,
000d,
0018,
0022,
ffd6,
001d,
0000,
0045,
0025,
0001,
ffef,
0000,
0018,
fff1,
ffeb,
fff4,
ffd6,
002b,
0015,
001b,
fff0,
ffdd,
ffec,
0023,
0011,
001b,
0004,
fff3,
0020,
ffce,
ffdc,
0010,
fff5,
0006,
0027,
000b,
ffe8,
0010,
0003,
001f,
001f,
000f,
0008,
000a,
ffe7,
fffb,
0010,
000b,
0017,
ffe4,
000e,
ffe9,
ffea,
0013,
fffe,
0005,
fffd,
0017,
0000,
000a,
fffb,
0003,
000c,
ffe5,
0003,
ffd7,
0000,
fffa,
fff7,
fff9,
fff7,
ffe0,
0008,
fff4,
ffe0,
0018,
ffdb,
fff3,
0000,
0004,
fff8,
fff2,
001c,
0018,
fffe,
fffb,
fffc,
fff2,
0030,
fff7,
fff1,
0010,
0007,
fffb,
0000,
0017,
0013,
0003,
0020,
0013,
ffe1,
fff6,
fff6,
0003,
001d,
0006,
fff0,
fff7,
000c,
fffe,
0010,
000a,
000d,
fffc,
0024,
0003,
ffe5,
0013,
0002,
ffef,
0000,
001e,
0004,
fff8,
0008,
0000,
0017,
ffe0,
0015,
fffe,
001d,
fff8,
ffdc,
0002,
0010,
0000,
ffe8,
0003,
fff2,
001e,
fffe,
000b,
fff1,
ffd4,
0009,
ffe6,
0007,
ffe9,
fff8,
fff5,
ffee,
ffe0,
ffea,
0013,
000b,
0006,
0000,
000f,
0000,
ffef,
0014,
ffef,
fff0,
0001,
fff5,
0012,
000e,
0004,
fffe,
0000,
fff1,
0000,
fffd,
0005,
0006,
fffd,
fffb,
0008,
0002,
0011,
fff9,
0004,
000e,
0002,
fff7,
000b,
0002,
fff7,
fff8,
0018,
0010,
0022,
fff5,
0002,
fff6,
0002,
000a,
000f,
0004,
0009,
ffe3,
fff4,
fff3,
001b,
000a,
0006,
0004,
0006,
0000,
001a,
fff1,
000e,
0013,
fff1,
fffa,
000a,
000a,
0015,
000d,
000e,
0020,
000e,
000e,
0018,
fff5,
fffc,
fff4,
ffeb,
fffc,
0000,
0014,
0003,
0003,
0006,
000c,
fffc,
0038,
0017,
001c,
fff1,
0014,
fffa,
0004,
0000,
fff8,
000f,
0001,
0006,
000b,
0015,
0005,
fffd,
000a,
0018,
001a,
0003,
fff0,
001b,
fff6,
fff1,
0023,
fff5,
ffdb,
fff8,
000d,
000b,
ffe8,
0000,
fffc,
0005,
fffe,
0005,
0012,
fff6,
0026,
0005,
0002,
0008,
0013,
0028,
fffc,
000d,
0001,
001d,
fffb,
0004,
fffb,
0013,
000c,
ffff,
0026,
0019,
ffe9,
0009,
fffc,
0005,
fffa,
0005,
0020,
0000,
000f,
ffe9,
0004,
0021,
fff5,
fff9,
fff6,
ffd7,
ffda,
0012,
001e,
ffe8,
0000,
0024,
0025,
fff6,
0028,
ffe8,
000b,
000b,
0007,
ffe2,
0019,
ffe7,
ffe6,
001f,
0011,
fff3,
0002,
0016,
002a,
0008,
fff2,
fff9,
0022,
ffda,
ffea,
fff9,
0002,
0018,
fff4,
0017,
0016,
000a,
fff4,
0009,
ffed,
fffa,
ffe6,
0016,
0013,
ffec,
ffff,
ffd1,
fff0,
fff0,
fff1,
0002,
0002,
ffe9,
fffa,
0007,
ffd7,
fffe,
ffda,
0001,
ffeb,
0004,
fffd,
fffd,
0010,
0020,
0015,
ffeb,
0018,
0003,
0006,
ffe1,
0007,
0005,
0010,
ffe0,
fff3,
0007,
fffb,
0006,
000a,
fff1,
ffec,
ffed,
ffdb,
000d,
fff7,
0002,
001c,
0003,
0016,
fff5,
fff4,
ffe1,
0007,
000c,
fffe,
fffd,
ffc2,
ffe8,
fff4,
fff4,
ffff,
0003,
0039,
000b,
fff8,
ffe6,
fff0,
ffeb,
001b,
fff8,
fffa,
ffd5,
0004,
0002,
fffa,
fff8,
ffd9,
ffe3,
0028,
0005,
000a,
0002,
0004,
ffca,
0013,
fff1,
ffea,
fff3,
001b,
0016,
fff1,
ffe7,
ffdd,
0008,
fff9,
0012,
fff0,
0019,
fffa,
0004,
ffe4,
ffe2,
0007,
0006,
000c,
fff6,
fff4,
fff6,
fff9,
ffe3,
fff9,
0002,
ffdb,
0003,
fff6,
fffc,
ffe3,
ffee,
0006,
000c,
000c,
0007,
ffff,
0000,
fffa,
fff2,
ffde,
fff3,
0000,
ffe7,
fffe,
ffe4,
0002,
fff9,
000b,
0013,
fff8,
ffd9,
fffc,
0017,
fffa,
ffe5,
fffe,
fff7,
fff2,
ffe0,
ffde,
000d,
fff9,
fffa,
fff0,
fff3,
fffb,
fff3,
0014,
001e,
fffe,
fff1,
fff2,
fff4,
0001,
fff1,
fffa,
fff6,
001a,
ffee,
fff7,
fff6,
0018,
fffc,
ffee,
000a,
0007,
fffa,
0004,
fffc,
0000,
0010,
fff0,
ffe9,
0005,
000a,
0007,
fffe,
000a,
ffed,
0008,
0007,
fff8,
fff3,
000b,
fff2,
ffe3,
0007,
000a,
0005,
0001,
000d,
0005,
0016,
fff0,
0010,
fff3,
0000,
ffe1,
ffee,
ffea,
000d,
fff0,
fffb,
fff0,
000b,
0004,
0001,
0019,
fff4,
0020,
ffff,
ffea,
0003,
0006,
0017,
ffe2,
000e,
0008,
000a,
000a,
fff2,
0005,
fff7,
000d,
0000,
0019,
0016,
ffec,
0000,
0008,
fffa,
0002,
0002,
000e,
0010,
0017,
0019,
0005,
0004,
000d,
fffb,
fff6,
0012,
0006,
0001,
0019,
001a,
ffff,
0006,
0011,
ffe4,
fffe,
001a,
fff9,
fff6,
fff6,
0014,
0007,
fffa,
ffe8,
0024,
0002,
0009,
0012,
fff4,
0011,
0019,
0022,
0006,
fffa,
ffee,
0006,
fff3,
000e,
000c,
0001,
000d,
0010,
fffd,
0005,
fffa,
000d,
fff1,
fff1,
ffea,
000d,
ffea,
0009,
ffe5,
0007,
0006,
000e,
ffed,
fff3,
ffe3,
0009,
0004,
000d,
0009,
ffe5,
0007,
fff4,
0018,
0013,
0017,
000e,
0013,
000f,
001b,
002a,
001b,
fffe,
0013,
fff1,
0016,
fff6,
0004,
0005,
0002,
0027,
0020,
0013,
0014,
000e,
0025,
fffe,
0001,
0008,
0022,
0010,
fffb,
fffc,
000a,
0020,
0011,
fff5,
ffef,
0012,
0009,
001c,
000f,
ffe5,
fff5,
000e,
fffc,
fff3,
000c,
fff6,
000f,
000d,
ffeb,
fff3,
fff1,
001a,
fff1,
0005,
ffed,
fff2,
ffe1,
0011,
fff8,
0000,
fff6,
0011,
ffe6,
fff8,
ffee,
ffe6,
ffeb,
0010,
fff4,
0007,
0006,
ffec,
ffdd,
fff7,
000b,
fff3,
0004,
fffe,
0000,
ffcf,
fff3,
ffe8,
ffde,
fffb,
0005,
fffd,
0006,
0000,
ffeb,
ffed,
ffe3,
ffe0,
fff6,
fff8,
000f,
0008,
fffe,
0001,
ffff,
0004,
0007,
0025,
fffb,
0001,
fff8,
ffeb,
0023,
000d,
0007,
fff7,
001f,
0011,
0005,
000d,
0027,
002b,
0002,
fff8,
0015,
fffd,
0008,
000f,
0006,
0017,
000f,
fff4,
0016,
fffa,
002e,
0007,
000c,
0029,
0005,
0002,
0009,
0003,
ffe2,
0010,
fff5,
0012,
0002,
fff4,
0031,
0019,
000a,
000d,
000d,
0013,
0008,
0027,
ffff,
0014,
ffee,
000e,
fff7,
fff5,
fffa,
000d,
0009,
ffff,
fff4,
ffed,
ffe9,
0018,
ffe8,
0000,
000a,
ffea,
fff6,
ffed,
0002,
fff7,
0002,
0016,
0018,
0012,
0011,
fffa,
ffff,
0011,
000e,
fffb,
ffff,
0003,
0000,
0001,
0009,
0000,
fffe,
fff3,
ffef,
000a,
001d,
0008,
0015,
000b,
0004,
0002,
0008,
fff7,
ffe1,
0011,
fff5,
0013,
fff1,
fff8,
ffec,
ffe7,
fff6,
0000,
0014,
0000,
ffea,
ffeb,
0001,
ffef,
fffd,
0001,
ffe5,
fff9,
0006,
ffe3,
0011,
fff4,
0001,
ffe4,
fff1,
0029,
0005,
0016,
fff3,
ffec,
0000,
fff6,
ffe9,
0004,
ffee,
000d,
fff3,
0007,
ffeb,
ffea,
fff7,
000c,
0001,
0006,
0017,
000c,
0011,
ffe9,
0015,
ffd6,
0013,
ffee,
fff7,
000e,
fffb,
fffb,
0007,
0007,
ffe9,
fff8,
000e,
ffe8,
fff4,
0011,
000e,
000d,
fff8,
ffe9,
fffa,
000d,
0008,
0003,
ffe4,
0004,
ffef,
ffe5,
0000,
fff3,
0004,
fff4,
fff9,
ffe6,
0007,
fff6,
000a,
fff1,
fffb,
ffe9,
fff2,
0018,
ffed,
fff3,
fff2,
fff6,
ffee,
ffed,
0001,
fffb,
000a,
000d,
0004,
0007,
fffe,
fffb,
fff9,
001c,
fff1,
000d,
ffe4,
000f,
ffec,
ffe7,
0009,
ffeb,
000e,
ffe7,
fffa,
0000,
ffed,
fffd,
0011,
fff4,
fffe,
0011,
0001,
0009,
0023,
ffff,
0015,
fff6,
fff4,
fffd,
ffdd,
0007,
ffe4,
0023,
fff6,
ffff,
fffb,
fff6,
fff8,
fff2,
0013,
fff5,
0020,
0010,
000c,
000f,
fff4,
fff5,
ffe6,
fffd,
0015,
000c,
fff8,
ffff,
001b,
001b,
fffd,
0002,
ffec,
ffef,
0003,
ffec,
fffe,
ffe6,
0016,
fff5,
001d,
ffee,
000d,
000b,
0015,
ffff,
0005,
ffea,
fff8,
ffe4,
fff7,
0001,
0013,
ffe6,
001f,
0007,
0018,
000d,
ffe8,
ffff,
fff8,
fff7,
ffe6,
ffef,
0004,
0013,
fff7,
ffdd,
0017,
fffe,
0003,
ffda,
fff1,
002a,
0007,
0019,
0025,
ffe8,
0000,
0016,
ffeb,
000c,
000f,
0010,
002c,
fffc,
0025,
fff9,
0002,
ffe3,
001b,
000c,
fff5,
000a,
fffd,
fffc,
0019,
0022,
fff9,
fff2,
0019,
0008,
0018,
ffea,
fff9,
fffa,
0015,
0024,
001e,
ffeb,
0011,
0026,
fff4,
ffff,
fff3,
001e,
ffe7,
0011,
ffec,
0002,
ffe6,
0002,
0013,
0000,
ffeb,
fff6,
ffef,
0015,
0019,
fffa,
fff8,
0009,
fffc,
fff4,
fffc,
0008,
ffee,
0012,
fff4,
ffef,
ffef,
000d,
ffee,
ffee,
fff6,
0012,
fffb,
000b,
fffd,
0001,
000a,
fffd,
0008,
0029,
0015,
ffff,
0000,
000c,
ffeb,
000b,
fffc,
0007,
fff7,
000c,
fffd,
0003,
fffe,
0014,
fff2,
fff7,
ffe5,
ffe2,
003d,
0009,
001a,
fff2,
ffe6,
ffed,
fff7,
fff6,
ffff,
fff4,
fff4,
fffc,
ffed,
0001,
0000,
fff6,
0021,
0002,
fffa,
000a,
0013,
001a,
fffe,
0004,
002b,
001f,
0008,
0003,
fffe,
000d,
0000,
000f,
0008,
fff4,
000a,
0023,
0001,
0013,
0012,
fff6,
fffe,
0018,
fff3,
ffe4,
ffdb,
0000,
ffed,
fff5,
fffb,
fff5,
fff7,
0016,
000d,
0013,
fffe,
fff0,
fff8,
0019,
0011,
ffe7,
ffe4,
0004,
ffe2,
fffd,
ffef,
0011,
ffe0,
001a,
ffef,
fff6,
ffe6,
000d,
ffed,
fff9,
ffe9,
0015,
fffe,
0021,
002a,
ffdf,
fffe,
0013,
0010,
0007,
0009,
fff2,
0006,
000f,
ffe9,
0003,
000b,
0026,
0009,
001c,
ffe4,
fffc,
0003,
0000,
fff5,
fff9,
000b,
fffb,
0007,
0000,
0002,
fff1,
ffed,
0018,
fff1,
0023,
ffe9,
ffec,
ffec,
ffed,
000c,
000d,
ffea,
0008,
0009,
0002,
fffa,
ffff,
fff8,
0003,
ffef,
0023,
fffe,
ffe2,
0011,
ffe4,
fff3,
fffe,
ffe7,
ffdf,
0005,
fff3,
0000,
0003,
0008,
000f,
000b,
0007,
fffa,
ffeb,
001f,
0011,
0008,
fff9,
ffe4,
0000,
ffe2,
fff9,
0029,
ffe5,
000b,
0015,
001b,
fff2,
fffe,
0002,
000d,
fffb,
fff3,
ffe4,
fff1,
000b,
000f,
ffe8,
0021,
0013,
ffe8,
ffed,
fff3,
0002,
000a,
0018,
fff2,
fffe,
ffe7,
ffe9,
ffef,
fff8,
0007,
0008,
0012,
fff8,
ffe6,
0005,
000c,
fff7,
fff6,
001e,
0007,
0020,
000b,
fff5,
fff7,
ffd7,
fffc,
000a,
0002,
0021,
fff8,
0007,
ffed,
fff2,
000b,
0006,
fff7,
000e,
ffed,
ffff,
0013,
ffd7,
fffd,
ffff,
fffc,
fff7,
ffcf,
ffde,
fff7,
ffda,
fffa,
0011,
0001,
ffff,
0009,
0010,
0009,
fff9,
ffea,
000e,
0006,
fffc,
ffee,
fff4,
0003,
fff1,
fffe,
fff3,
fff8,
fffc,
0005,
002b,
0016,
0027,
0005,
fff6,
fff6,
0002,
fff2,
fffd,
ffee,
0008,
ffed,
0034,
0005,
0005,
ffea,
0020,
0016,
0022,
ffed,
000e,
0011,
0000,
ffe8,
ffe3,
fff7,
000c,
fff8,
ffec,
000a,
0003,
000d,
fff7,
ffdd,
fff1,
ffef,
0003,
fff1,
fff8,
ffe7,
ffea,
ffee,
0018,
0009,
0011,
ffed,
ffe5,
ffe8,
ffdd,
ffe7,
fff2,
fff7,
ffec,
fff4,
000c,
ffee,
ffd7,
0004,
0040,
0015,
0000,
fff5,
fff6,
fffd,
fffb,
000f,
ffec,
002a,
0007,
ffeb,
fff4,
ffe3,
fff5,
ffde,
0004,
000b,
ffd8,
ffe9,
fffd,
0005,
0014,
0003,
0002,
000f,
ffd6,
ffe1,
ffe7,
001b,
fffe,
ffe1,
0003,
ffde,
ffec,
0000,
ffe0,
0008,
0016,
0000,
0019,
0004,
fff0,
fff2,
fff7,
0010,
0020,
ffe8,
0000,
0007,
0010,
fffc,
000e,
fffb,
002a,
001b,
0013,
ffdc,
ffec,
ffe8,
ffe5,
0000,
fffb,
ffe7,
0022,
0000,
0001,
0007,
ffd0,
0006,
ffe3,
ffe6,
ffee,
0001,
0003,
fff3,
0008,
ffe8,
ffd5,
ffe4,
0016,
0013,
0003,
ffda,
ffd2,
0000,
fff9,
0011,
ffd9,
001d,
fff9,
001a,
ffff,
fff9,
ffeb,
fff0,
0022,
001e,
fff7,
ffda,
0017,
fff9,
ffe2,
0006,
fffd,
000d,
fff8,
0003,
fff1,
ffe5,
000a,
0005,
0000,
001a,
0004,
001c,
000a,
fff4,
0016,
0014,
0006,
001c,
fff5,
0031,
ffe2,
002f,
fff2,
0004,
0017,
0003,
0002,
0020,
001b,
0003,
0004,
fff2,
0036,
ffdb,
0000,
0016,
001e,
0030,
0023,
0029,
fffe,
fff4,
0008,
000f,
000e,
fff6,
0025,
fff5,
0025,
ffdf,
000b,
fff2,
fffb,
000c,
fff6,
000c,
fff9,
0007,
fff6,
fffd,
fff3,
fff1,
fffa,
fff4,
ffff,
0010,
fff8,
fffa,
ffed,
ffee,
0008,
000c,
001f,
0011,
0002,
fff8,
0007,
0014,
ffea,
0000,
fff1,
0012,
000b,
0012,
fff8,
ffec,
fffa,
fff9,
0009,
ffef,
fff4,
fff3,
ffe3,
0014,
ffee,
0000,
fffe,
fff6,
000d,
000e,
fff5,
000d,
ffed,
000b,
0007,
0005,
ffee,
0019,
0005,
fff7,
fff6,
0012,
ffed,
0003,
0013,
fff5,
fffc,
0013,
0006,
0010,
0013,
ffee,
0002,
0024,
fffc,
0004,
ffd6,
fff8,
ffe3,
fff4,
0002,
0025,
0010,
ffec,
0016,
ffef,
ffef,
0000,
0002,
fffc,
ffdf,
000c,
ffee,
0005,
ffe8,
ffea,
0002,
0019,
fff1,
fffb,
0007,
0010,
fff8,
fff6,
fffc,
001b,
0007,
000a,
fff5,
fff3,
0010,
0001,
000d,
0000,
000e,
0004,
0002,
0017,
fffb,
0011,
0010,
ffe6,
0002,
0004,
0008,
0018,
0002,
0017,
0000,
0018,
001f,
fffe,
fff2,
0010,
fff9,
000f,
0015,
0006,
ffff,
ffef,
0013,
0016,
0004,
0013,
000e,
0008,
fff0,
0001,
fff0,
0008,
0020,
0007,
fff4,
ffea,
0007,
fffb,
fffc,
0001,
fff6,
0022,
0000,
ffff,
001a,
ffe8,
001c,
0000,
0016,
0012,
0015,
0012,
000e,
000f,
000f,
0006,
fff3,
fff5,
0001,
0004,
0017,
000f,
fff4,
fff2,
ffef,
0000,
0016,
000e,
ffef,
fff9,
0017,
ffed,
0004,
fff6,
fff3,
fff9,
ffdc,
0008,
000e,
0006,
fff8,
ffe0,
0000,
0015,
000a,
0000,
0009,
ffe4,
fff8,
0009,
fffe,
0001,
fff0,
0018,
fff8,
0001,
fffc,
ffe2,
0015,
0000,
ffed,
0016,
0003,
fffa,
0019,
0013,
ffe5,
fffb,
0005,
fff8,
ffdd,
fff7,
0014,
ffeb,
001e,
0012,
ffff,
0000,
0000,
0006,
000b,
0001,
fff9,
000c,
0005,
000b,
0003,
0008,
0006,
fff9,
fff5,
ffed,
001d,
0007,
0006,
ffe7,
fff6,
ffed,
0014,
0018,
0000,
0013,
fff6,
0003,
fff2,
fff1,
ffec,
0010,
fffa,
ffe8,
0010,
fff3,
ffed,
0000,
0003,
fffe,
0009,
ffef,
ffe0,
0017,
ffea,
fff1,
0004,
0007,
fffc,
fff4,
000c,
000c,
0017,
0004,
0012,
0002,
0004,
fff9,
0018,
0017,
001b,
ffec,
fff1,
000e,
0018,
0002,
000d,
0024,
fff6,
0000,
0004,
0017,
0012,
0004,
001a,
000b,
0021,
fff3,
0007,
0022,
0000,
0003,
fffb,
0015,
fffb,
fff6,
0006,
0011,
fffb,
fff7,
fff6,
000a,
0000,
000a,
000d,
000d,
0002,
0022,
0004,
0011,
ffff,
0010,
000d,
fffa,
fff3,
0016,
000e,
0014,
0010,
fff9,
0008,
0020,
001f,
0000,
ffe3,
0012,
0016,
0003,
000f,
000e,
ffdf,
ffef,
fff3,
0005,
fff4,
ffd7,
0001,
ffdb,
fff1,
ffe1,
ffef,
ffe6,
0024,
ffce,
ffd6,
0006,
ffe1,
fffa,
ffca,
fffd,
fff9,
fff1,
ffdc,
fff5,
ffe2,
ffdb,
fffa,
fff4,
0014,
ffdc,
ffde,
ffec,
000b,
fff3,
fffc,
ffef,
000d,
ffec,
ffee,
0011,
fffa,
0000,
0003,
fffd,
ffe8,
ffef,
fffb,
ffff,
0016,
0000,
0015,
000f,
ffde,
fffe,
000f,
ffeb,
fff4,
0004,
0024,
000a,
0010,
fffd,
0012,
0007,
fffe,
ffeb,
000e,
ffe0,
001f,
0005,
000f,
ffdf,
001b,
0002,
ffff,
0015,
000a,
ffea,
0008,
fffc,
0014,
ffc8,
fff4,
0014,
003b,
0017,
0014,
fff0,
0010,
0002,
ffff,
0023,
ffe6,
0022,
ffff,
0036,
fffc,
ffd8,
fffb,
ffe1,
fff4,
ffd7,
ffdd,
ffde,
ffce,
ffed,
ffc7,
ffd0,
ffe2,
ffff,
ffec,
0017,
0001,
fff0,
ffcc,
ffe3,
fff7,
ffde,
ffd3,
fffc,
ffd3,
fff8,
ffcc,
ffe8,
fffd,
0006,
ffd2,
ffe9,
000a,
0009,
0000,
fff8,
0024,
fffa,
fff4,
ffff,
000a,
0009,
0008,
fff7,
fff4,
ffdd,
0003,
fff9,
0001,
0002,
ffef,
ffe6,
001f,
fff7,
000e,
0006,
ffe9,
ffec,
0010,
0015,
0013,
ffde,
ffdd,
000e,
0010,
0018,
ffd0,
ffdc,
0002,
fff0,
0009,
ffca,
ffd6,
fffb,
fff9,
0020,
0014,
ffef,
fff5,
000b,
0015,
ffe4,
ffe2,
0000,
0005,
0001,
ffef,
0000,
ffe4,
ffd8,
ffe7,
fff6,
ffda,
0011,
0015,
000a,
fff5,
ffc8,
ffe9,
fff9,
001c,
ffe2,
ffe1,
0008,
fff4,
ffee,
ffce,
fffa,
ffe2,
fff0,
ffe8,
ffff,
0007,
ffff,
000a,
0009,
0004,
ffd7,
ffe5,
0011,
ffd3,
fff5,
0005,
0000,
ffe6,
ffe0,
fff8,
0001,
ffd9,
fffa,
ffd3,
0005,
0001,
ffe9,
ffe7,
0001,
ffec,
ffd1,
ffef,
fffc,
fff1,
fffd,
ffee,
0003,
ffe4,
fff2,
ffd3,
000c,
001a,
ffd4,
ffef,
000d,
ffd0,
fff0,
0005,
fffd,
000b,
ffef,
ffd3,
ffff,
0000,
001a,
fff0,
000f,
0019,
fff5,
001d,
000e,
ffd6,
0014,
fff0,
fffb,
0016,
ffed,
ffed,
0038,
0019,
fff5,
ffdf,
ffe5,
0005,
0008,
fff4,
000c,
ffdb,
fff5,
fff3,
0012,
fffc,
0014,
0013,
0018,
ffe4,
fff9,
fffd,
0000,
fff3,
ffec,
0008,
0006,
ffe5,
ffe2,
ffe3,
0006,
fff9,
0014,
ffe6,
fff7,
0022,
001e,
ffff,
fffe,
0012,
fff1,
ffcd,
000c,
0006,
0006,
ffe0,
0008,
fffb,
0000,
0007,
fff5,
ffea,
ffed,
0029,
fff5,
fff7,
0016,
ffe2,
0010,
fff5,
000e,
ffe4,
fff9,
ffdf,
0019,
ffe9,
fff1,
fff4,
fff6,
0016,
fff5,
fff1,
0011,
fff9,
001b,
0008,
fff8,
ffdc,
ffe1,
ffe6,
000f,
000a,
fff0,
001d,
fffa,
000c,
0016,
fff8,
fffb,
001f,
0044,
fff9,
000d,
fff3,
001d,
fff5,
0001,
0008,
0031,
000b,
fffb,
0024,
0003,
0011,
0010,
ffec,
0020,
0027,
0006,
fff4,
000c,
fff2,
001e,
0001,
002b,
0011,
fff5,
001a,
002d,
0007,
fff4,
0004,
0026,
0003,
0022,
fff0,
001f,
0000,
000e,
0012,
0007,
0005,
0008,
0017,
0020,
0020,
0013,
0019,
0000,
0024,
000f,
0004,
000e,
0027,
001e,
0023,
0000,
fff4,
ffef,
fff2,
000a,
0023,
0008,
fff3,
fffb,
0008,
0000,
0002,
fffe,
fff0,
0011,
0000,
ffec,
ffeb,
fffa,
0027,
fffd,
000b,
fff5,
0004,
0018,
0020,
0005,
fffc,
ffef,
0016,
0014,
ffe5,
0007,
fffb,
001f,
000a,
ffea,
ffec,
fff9,
000d,
001f,
fff7,
fffc,
0000,
001b,
001b,
0016,
fff1,
001e,
0008,
0022,
0019,
ffeb,
0008,
0016,
0020,
ffff,
ffff,
fff8,
0000,
0019,
0003,
0014,
0018,
002f,
0028,
002e,
fffb,
0003,
0001,
000e,
001f,
0012,
0004,
000a,
0008,
ffff,
0022,
0013,
0020,
0016,
0000,
002c,
0006,
000e,
0025,
0012,
fff9,
fff9,
fff9,
0002,
0008,
fff4,
000f,
0025,
001b,
0019,
fffc,
0000,
001b,
001e,
000c,
0004,
0003,
fff7,
fffb,
0003,
000c,
0005,
000b,
0005,
ffe7,
fff7,
ffdc,
0010,
0007,
fff2,
0003,
ffe9,
fff4,
fffb,
ffff,
fffc,
0000,
ffe8,
0010,
fff6,
ffeb,
0000,
fffb,
0012,
fff2,
0015,
fffc,
fffe,
0000,
fff9,
0012,
fff9,
ffee,
0005,
ffea,
fff9,
fff4,
001a,
0013,
001c,
0016,
0025,
0019,
fffc,
0002,
0020,
0024,
0001,
ffe2,
0004,
ffd6,
fffc,
0007,
0008,
000d,
0000,
000f,
0005,
fffe,
fff1,
0011,
fff5,
0006,
fff4,
ffff,
fff0,
fff9,
fffd,
fff8,
fffc,
fffb,
0012,
001b,
001b,
0012,
0003,
ffd5,
0000,
000a,
fffc,
fffa,
000d,
ffdf,
000d,
0023,
001c,
fff6,
fffc,
ffe6,
0003,
0013,
0008,
fff5,
000a,
fffd,
000c,
0008,
000c,
fffa,
0006,
000f,
0005,
fff1,
fff0,
fffb,
0008,
0007,
fff6,
fff1,
001d,
0000,
0003,
000e,
0006,
ffe9,
0001,
000e,
0001,
0020,
000b,
ffee,
001c,
fff3,
0001,
ffe7,
0009,
0014,
000b,
ffec,
ffff,
ffdc,
001f,
001a,
002b,
0010,
0014,
ffe1,
0009,
0009,
ffff,
0016,
fff7,
fff6,
000b,
fffc,
0002,
fff0,
0000,
000c,
0024,
0013,
ffdb,
0006,
0029,
fffc,
0012,
fffb,
0017,
001d,
0000,
ffdd,
000d,
ffe7,
ffff,
0012,
0010,
fff7,
fffd,
ffef,
fff3,
000b,
fffe,
fff3,
0011,
0006,
fff0,
ffff,
0014,
fff5,
fff7,
0011,
fffe,
000d,
0006,
fff9,
0002,
ffec,
fff5,
000d,
ffda,
fff8,
000e,
ffeb,
fff3,
fffb,
0003,
0000,
000c,
fff8,
000e,
fffb,
0001,
fff0,
0021,
0000,
fffc,
0021,
001a,
fff5,
000b,
0006,
fff8,
fffd,
0015,
fff0,
fffb,
000d,
0020,
002b,
fff5,
ffef,
0000,
ffec,
fffa,
fff2,
000c,
0019,
0004,
001a,
000d,
0000,
0009,
ffd6,
ffdf,
0001,
ffef,
001e,
ffcc,
ffea,
0003,
0008,
fff8,
ffd8,
fffe,
0018,
fff6,
0020,
fffa,
fff3,
fff8,
0010,
0020,
0003,
ffd7,
0000,
0003,
0009,
0010,
ffd7,
0015,
001a,
ffe4,
fff8,
ffdf,
fffe,
0000,
0005,
0000,
ffe6,
fffb,
ffeb,
000b,
ffee,
0013,
ffd1,
0019,
0001,
000c,
fffa,
ffef,
ffe7,
000a,
ffef,
0000,
fffd,
fffb,
ffe0,
0009,
ffeb,
0003,
fff1,
ffee,
0007,
fff0,
0004,
fffa,
0001,
fff0,
ffef,
fffa,
fffa,
ffee,
0001,
000b,
fffd,
0009,
ffff,
0014,
0019,
ffe0,
fffc,
001c,
0000,
fff3,
001b,
fffd,
ffea,
000c,
0018,
000e,
0005,
ffed,
fffd,
0015,
000d,
0013,
000b,
0004,
fff6,
0013,
fff3,
000c,
0022,
ffec,
fff9,
0000,
ffed,
0013,
0006,
fffc,
ffe5,
0005,
000c,
fff0,
0000,
fffe,
0012,
000c,
fffc,
ffdf,
0003,
ffff,
0023,
001c,
001d,
000a,
0008,
fff9,
0009,
0016,
000c,
ffee,
0007,
ffe9,
0005,
000b,
0009,
0007,
0008,
0014,
fffc,
0014,
0016,
0008,
ffec,
000b,
ffec,
0012,
0010,
fff2,
fffe,
ffe7,
0000,
fffd,
0004,
fff3,
000b,
0011,
ffed,
000e,
ffef,
0000,
0008,
fffc,
0028,
fff6,
0004,
fff9,
0006,
000b,
0011,
fff2,
fff4,
000e,
000b,
ffdf,
ffea,
000a,
0008,
0006,
0017,
0014,
ffec,
ffe5,
0020,
0015,
000d,
ffe4,
fffa,
0012,
000d,
ffdd,
001c,
000e,
0000,
ffe8,
fff4,
ffef,
0011,
ffe8,
ffd4,
ffee,
0001,
0001,
0016,
fff5,
000c,
ffe4,
fffd,
0002,
ffd8,
fff3,
0016,
ffe8,
fffd,
ffd2,
ffee,
ffec,
0000,
fffd,
001b,
0012,
fff8,
0000,
ffde,
fff5,
fff0,
0003,
0000,
0006,
fff2,
fffb,
0000,
0003,
0000,
ffe2,
ffeb,
0000,
ffe2,
0000,
0001,
ffeb,
0005,
ffea,
ffef,
ffe6,
0010,
000d,
0008,
000d,
0000,
000d,
fff7,
fff7,
ffff,
ffed,
fffc,
0000,
ffdd,
fffe,
001e,
fffb,
ffe9,
fff0,
001f,
fffd,
ffea,
fff3,
000f,
0011,
0004,
000b,
0012,
fff7,
fff2,
001d,
0025,
0009,
fff5,
0006,
fff7,
fffc,
fff1,
fff5,
fff0,
000a,
fffd,
0024,
0007,
0017,
ffde,
000a,
fffd,
0000,
fff2,
fff8,
ffe5,
0009,
ffff,
0000,
0001,
0026,
0016,
002d,
0008,
0010,
000b,
0018,
000d,
ffef,
ffed,
000d,
0005,
fff5,
0004,
fff2,
0000,
0017,
fff3,
0016,
fff9,
0001,
fffd,
000e,
ffff,
fff8,
0003,
0001,
ffed,
0006,
fff8,
0000,
0005,
0008,
0007,
fff3,
fff9,
fffc,
ffef,
fff9,
000a,
fff2,
fffb,
fff2,
0002,
fff8,
ffe6,
ffef,
fff9,
ffe1,
fff3,
ffeb,
000a,
fffe,
fff5,
0004,
ffec,
0014,
0009,
fffe,
0022,
ffef,
0015,
ffec,
ffee,
ffdc,
0011,
ffee,
0014,
fff8,
0007,
ffec,
000b,
0019,
fff9,
fff7,
fffa,
0018,
0013,
0007,
ffeb,
fff1,
001a,
0003,
000b,
ffef,
000a,
fff4,
ffec,
fff8,
fff8,
fffd,
ffef,
000c,
0005,
0002,
ffef,
fffb,
0004,
0008,
fff1,
fff5,
0016,
0006,
ffee,
fff9,
fff6,
ffec,
fff7,
fff4,
fff9,
000e,
0000,
0001,
000e,
ffef,
fff9,
0001,
0001,
0017,
fff5,
001e,
000a,
001b,
ffef,
001b,
0006,
0004,
fff7,
fff8,
001b,
0004,
0007,
000d,
ffe9,
fffb,
0008,
0004,
ffe7,
ffdc,
fffc,
ffec,
fffd,
ffe2,
fff7,
0008,
0007,
ffe3,
0000,
0000,
ffdf,
fff3,
000b,
fff1,
0001,
ffde,
0008,
0005,
0004,
000d,
ffd9,
0008,
0008,
fffd,
0010,
ffe6,
0003,
0008,
0018,
0013,
ffe9,
ffed,
000d,
ffea,
ffe1,
001d,
0005,
fffb,
ffef,
fff4,
000c,
fffb,
fff7,
0004,
0014,
0001,
000b,
0014,
ffec,
0012,
fff1,
0000,
0003,
ffff,
ffe3,
0006,
fffc,
0006,
fffb,
fff0,
0010,
0000,
0009,
0014,
0014,
0004,
0000,
fff4,
000c,
fff0,
ffff,
001f,
000f,
0006,
0019,
fff7,
000a,
000c,
0014,
0019,
0015,
0020,
000a,
0000,
0013,
fffa,
0004,
0018,
0003,
000a,
ffde,
ffe8,
ffe8,
fff1,
fff8,
ffda,
ffeb,
0018,
ffd2,
fff8,
000a,
000a,
000c,
fff4,
0015,
ffef,
fff7,
000c,
0005,
0006,
001f,
ffed,
fff8,
fff9,
ffdd,
001a,
fff6,
002f,
000b,
fffd,
0013,
fff8,
fff0,
fff8,
0032,
0009,
000d,
ffff,
0008,
0009,
fff3,
fff6,
fff4,
0017,
000c,
0023,
fff2,
fff9,
0002,
0027,
000b,
0005,
000e,
0015,
0020,
fff7,
fff7,
fffb,
ffff,
ffeb,
0012,
0021,
0008,
001f,
0000,
0015,
ffe5,
fffa,
000e,
fff2,
0006,
0006,
fff7,
ffed,
0004,
fffd,
0011,
000b,
0029,
ffee,
fff7,
000a,
0008,
0018,
0017,
0019,
0023,
000b,
fff1,
001e,
fff1,
ffec,
0012,
fff3,
0008,
fff6,
ffec,
fff5,
0000,
ffe7,
fff6,
ffdf,
fffd,
fff3,
0013,
0000,
fff2,
fff8,
fff2,
fff3,
0002,
fff6,
0003,
0000,
ffe4,
0000,
0001,
ffd8,
0005,
001b,
fff7,
0012,
ffde,
0012,
0023,
ffff,
fffa,
ffdf,
0007,
0017,
0000,
0006,
fffd,
ffe4,
0006,
fff7,
ffed,
0006,
ffdd,
0008,
001b,
ffe2,
0006,
fffa,
ffef,
0019,
fff2,
ffeb,
ffeb,
fff9,
0016,
0000,
fff9,
fffb,
0003,
0016,
000d,
0020,
001c,
0015,
fffb,
fffd,
fff8,
0001,
000e,
fffd,
fff0,
0019,
fff6,
0004,
0019,
000d,
000e,
0019,
fffb,
0013,
fff3,
ffe6,
0005,
fff0,
fffc,
ffe8,
0003,
000f,
0008,
fff3,
fffd,
000e,
000c,
fffe,
0017,
fffa,
ffe4,
001c,
fff9,
fff1,
fffd,
ffef,
ffe7,
000e,
fffa,
000a,
ffe6,
0002,
000d,
0000,
0016,
fffb,
ffe8,
0019,
000d,
0019,
0003,
ffdf,
fff1,
fff5,
ffe3,
000b,
fff1,
0008,
fff4,
fff9,
fffb,
fff0,
ffff,
fff2,
000a,
0026,
0011,
ffe8,
ffed,
0011,
ffe8,
0006,
0003,
0018,
0017,
fff8,
0005,
fffa,
001b,
0012,
000f,
0011,
0007,
0000,
000c,
0011,
0007,
ffe9,
0012,
000d,
fff1,
fff6,
fffb,
000e,
0007,
000a,
fff6,
0007,
001f,
ffed,
fffa,
000f,
fff8,
fff8,
fff9,
ffee,
0016,
fff9,
fff1,
fffb,
0013,
0002,
0001,
001c,
ffea,
ffff,
0019,
0016,
0014,
ffff,
0007,
ffef,
0000,
0010,
ffeb,
ffee,
ffe4,
fffa,
0002,
ffd9,
000d,
0012,
ffd5,
000b,
fff9,
fff1,
000f,
fff9,
0004,
fffb,
0012,
fffd,
ffd6,
fff6,
000d,
fff8,
001a,
000f,
000c,
000f,
fff6,
fff4,
0012,
0016,
0009,
0005,
0007,
000e,
0006,
0015,
ffe1,
0001,
0000,
0017,
0009,
fff5,
0018,
ffe9,
0025,
0009,
0002,
0010,
000c,
fffa,
0021,
0016,
ffe2,
000f,
0000,
0014,
0006,
fff7,
001a,
0005,
000a,
fff9,
fff6,
ffdd,
fff2,
fff8,
0003,
0012,
0000,
0002,
fff9,
000f,
0014,
ffee,
fff7,
fff7,
0000,
ffe1,
fff6,
fffa,
ffed,
000d,
0000,
0008,
ffeb,
0005,
fffd,
fff7,
0000,
ffee,
000a,
0010,
000d,
ffef,
000f,
fffb,
0002,
ffe3,
fffa,
fff0,
ffe4,
fff6,
0000,
ffeb,
0008,
ffff,
ffff,
ffe8,
ffda,
ffee,
0018,
ffec,
fffd,
fff6,
0010,
fffc,
ffd0,
0004,
fff1,
fff2,
0000,
001a,
0011,
ffeb,
0005,
0017,
0000,
ffd4,
0000,
0006,
0009,
fff4,
ffef,
0015,
ffea,
fff7,
fff1,
0021,
0000,
0014,
0027,
0010,
000d,
fffa,
000e,
000c,
002b,
0015,
001b,
001a,
fffe,
0006,
fffe,
000d,
ffdd,
0004,
000a,
0014,
0000,
ffff,
ffef,
0013,
0001,
0013,
0003,
000e,
0000,
ffff,
fffe,
fff4,
fffb,
fffe,
fff1,
0010,
ffef,
fff9,
ffe2,
0006,
fff7,
0014,
000f,
0003,
000a,
0017,
ffed,
0016,
0017,
0006,
ffdf,
000f,
fffb,
ffee,
000a,
fff7,
0008,
0000,
fffb,
fffd,
0018,
ffee,
0012,
000c,
0000,
0005,
fffb,
fff8,
fff9,
ffff,
fff4,
000a,
001e,
0019,
ffb8,
fffd,
0007,
ffee,
0000,
fff3,
001e,
0008,
fffe,
ffeb,
0000,
fff7,
fff4,
0020,
0003,
0022,
ffc0,
ffee,
0020,
0015,
fff6,
fffb,
000f,
ffff,
fffd,
0000,
fffb,
ffde,
000e,
0018,
0013,
000b,
fffb,
000c,
001c,
0023,
0012,
fffc,
fff7,
ffeb,
ffff,
0002,
0004,
ffff,
0010,
0006,
ffec,
000d,
0016,
0002,
0016,
0014,
0028,
fff2,
ffe5,
0017,
ffdf,
0004,
fffa,
0008,
fffe,
ffef,
0001,
000b,
0000,
000c,
fff3,
0011,
000b,
0005,
ffea,
fffc,
ffe6,
000b,
fffe,
0012,
000d,
0020,
ffee,
0010,
ffdc,
000a,
0006,
fffe,
fff5,
0008,
0020,
0019,
fffd,
0007,
0011,
000b,
fff4,
0022,
0008,
0015,
ffe7,
001c,
0003,
fff7,
fffd,
0019,
fff3,
ffed,
000d,
001e,
fffe,
000a,
001a,
0001,
0006,
001b,
ffd2,
fff7,
ffff,
ffee,
001a,
000b,
fff1,
ffec,
fffc,
000e,
0019,
fffc,
ffe7,
001a,
fff4,
0022,
ffec,
fffb,
0003,
fffa,
fff8,
0007,
0001,
fffa,
ffe3,
0004,
0000,
ffe1,
0010,
ffec,
fff0,
0011,
ffeb,
fff8,
0013,
ffce,
fff7,
000f,
fff5,
000a,
0001,
0015,
000a,
ffcb,
0005,
ffeb,
ffda,
ffe8,
0011,
fff9,
0014,
fff4,
ffee,
fff7,
0002,
0016,
ffff,
000d,
0019,
000a,
fffa,
0000,
fff5,
0004,
000a,
0019,
fff0,
0001,
fff6,
000a,
0011,
ffea,
ffe7,
fff9,
0019,
000c,
0016,
0014,
000e,
0016,
ffe9,
ffec,
0008,
0003,
001b,
ffff,
ffdd,
0000,
0016,
fffa,
0011,
001b,
ffec,
0013,
0013,
000a,
ffd9,
fff7,
0021,
000c,
fff5,
0001,
000c,
0011,
fffb,
0009,
0021,
001e,
000b,
001d,
fffe,
0019,
0004,
fff5,
fffe,
0004,
0011,
fff7,
0012,
fff3,
0005,
0006,
0019,
002c,
0012,
fff4,
fffb,
000d,
000c,
ffef,
0000,
ffe4,
0019,
fff8,
0023,
000a,
001c,
000c,
fff9,
0000,
fffd,
0004,
ffee,
0013,
fff6,
000a,
fff2,
ffe2,
fff7,
ffe9,
fffc,
ffec,
fff0,
0009,
fff8,
0002,
001d,
0002,
ffff,
0000,
ffe0,
fffb,
fffc,
fff8,
0009,
fff3,
fffa,
0013,
0015,
0013,
0004,
ffec,
fffc,
fffb,
fff3,
0005,
ffc4,
0016,
000e,
0004,
0000,
0009,
fff3,
0014,
fffe,
fff8,
000d,
0000,
fffc,
001e,
000b,
0017,
ffd4,
0004,
ffef,
0007,
001a,
fff2,
ffed,
ffd9,
0020,
fffa,
001d,
fff4,
fff3,
001a,
000f,
0021,
fff1,
0008,
001b,
0005,
0011,
000a,
fff7,
0005,
ffe3,
fff3,
ffee,
ffec,
0010,
ffe9,
fff7,
ffee,
0002,
ffff,
ffe7,
fff4,
0003,
fff0,
000b,
ffee,
ffe3,
0009,
0010,
0007,
fff9,
ffd5,
0005,
ffe4,
0005,
fffc,
ffd0,
ffd3,
0001,
0006,
fff9,
0005,
ffe6,
0011,
ffed,
000b,
fffd,
fff8,
fffb,
000e,
fff5,
fffd,
0018,
001a,
0000,
fff4,
000c,
0014,
ffff,
000d,
fffc,
ffee,
0009,
fff9,
001f,
fff0,
ffe9,
0015,
0018,
ffe9,
0029,
0001,
0012,
0008,
fffc,
0007,
0006,
fff3,
fff3,
ffe9,
0041,
002c,
ffd3,
0022,
fff8,
0007,
001f,
000e,
000c,
0005,
ffea,
000e,
000c,
ffd6,
fffd,
ffe8,
000d,
0005,
fffa,
0015,
0016,
ffec,
ffe3,
0021,
0005,
000b,
0007,
ffec,
000f,
ffd4,
0016,
ffdb,
0016,
0002,
ffee,
000a,
0010,
ffe3,
fff4,
000d,
fffe,
000b,
ffe7,
ffff,
001a,
ffef,
fff3,
fff9,
0001,
ffd6,
000b,
000d,
ffff,
fff7,
ffe1,
0008,
0012,
0013,
0000,
000d,
0027,
0000,
ffef,
0006,
ffea,
fff3,
0005,
0011,
000a,
fff9,
0007,
ffed,
000d,
fff8,
0000,
ffeb,
ffec,
000e,
0009,
ffe1,
000a,
fff2,
fff9,
ffff,
fff4,
fff0,
001c,
ffe8,
fffc,
fff4,
ffe1,
0005,
fff8,
ffe4,
fffe,
ffdd,
ffe7,
0000,
ffed,
0017,
fffa,
ffed,
000f,
001a,
0008,
ffef,
fff3,
fff7,
fff8,
ffe7,
fff1,
ffe1,
001c,
0004,
000f,
0014,
ffd4,
fff8,
0003,
000c,
fff7,
0019,
0003,
fff7,
ffe9,
fff7,
ffeb,
0006,
0006,
0010,
0017,
0008,
ffe8,
0012,
fffd,
fff8,
0008,
0001,
000d,
0010,
ffe7,
fff4,
0010,
fff3,
0006,
ffea,
fffc,
0008,
0000,
fffb,
ffff,
000f,
0014,
000d,
0009,
0009,
000a,
0008,
ffff,
ffe9,
fffa,
0007,
ffed,
fffe,
fff7,
fff3,
000a,
fff0,
000d,
000d,
ffef,
fff6,
fff2,
0000,
0008,
fff2,
000a,
fff9,
0004,
0000,
0009,
ffe7,
000d,
0007,
ffed,
fff2,
fff1,
0008,
001e,
0001,
000d,
000e,
000d,
0002,
0003,
000f,
fff7,
ffe8,
000d,
ffee,
fff8,
0000,
0004,
0008,
0010,
ffd8,
0006,
000c,
0000,
0009,
0015,
0005,
0007,
0005,
0000,
fff2,
0003,
0000,
0020,
0010,
ffef,
fff7,
ffe7,
000e,
0002,
001e,
000a,
fff4,
0001,
001a,
fff8,
0000,
0004,
0000,
0012,
0005,
0004,
fffb,
fff9,
0001,
0000,
fff5,
0004,
fff3,
fff9,
ffff,
0004,
0009,
0011,
0001,
0021,
0011,
0009,
0002,
fff8,
0002,
0000,
fff5,
0019,
fff3,
0009,
fffe,
fff0,
fff8,
fff4,
fff2,
fff3,
0003,
001d,
0017,
0027,
000e,
fff4,
000c,
001e,
0001,
0002,
fff6,
000d,
000b,
ffee,
0008,
0001,
000c,
0018,
0008,
0001,
002e,
ffdf,
0010,
0038,
0014,
001b,
000b,
fff8,
fff9,
fffb,
0000,
0017,
000f,
0001,
0039,
fffa,
fff6,
fff9,
0006,
fff7,
0014,
ffe6,
ffff,
0026,
0012,
0005,
0005,
ffe3,
0012,
0004,
0000,
000d,
fff5,
fff8,
0000,
0006,
ffee,
0016,
001a,
0000,
0000,
fffd,
000f,
fffd,
000b,
0004,
000e,
0009,
ffde,
000e,
fff8,
ffee,
0010,
001e,
0003,
0006,
0011,
0005,
fff7,
fffa,
fffb,
0012,
000f,
fff5,
0007,
ffe7,
0005,
ffe5,
0008,
0016,
ffff,
ffe6,
fff2,
0005,
fff8,
001d,
fff5,
0006,
fff5,
000a,
0007,
0008,
0001,
ffda,
0016,
0000,
ffd9,
fffd,
fffc,
fff9,
000c,
ffdf,
0011,
000a,
ffde,
0005,
fffd,
0000,
0000,
ffd6,
0000,
000f,
ffed,
0003,
0019,
0000,
0006,
ffee,
fffc,
fff7,
ffe6,
ffee,
0009,
fff9,
0013,
ffe2,
0006,
0017,
0000,
0010,
0014,
0009,
0007,
ffef,
000a,
0005,
fff0,
0001,
fff9,
0009,
fff4,
0004,
0012,
ffea,
ffee,
000a,
000f,
0002,
0000,
000e,
ffee,
ffec,
fffd,
0004,
0008,
ffe9,
ffe6,
0000,
0002,
000d,
fff1,
ffee,
0005,
0036,
0002,
001f,
ffed,
fff5,
ffec,
fffd,
fff8,
0000,
000e,
fff7,
fffa,
000b,
0009,
000e,
0010,
fffe,
000a,
ffed,
ffec,
ffe7,
fff2,
fffb,
0017,
ffe7,
0007,
001b,
fffb,
fffb,
ffca,
0008,
fffb,
ffee,
0000,
fff0,
fff0,
000f,
0009,
fffb,
fff4,
ffe1,
0014,
001d,
0009,
fff0,
fff5,
fff8,
0004,
0003,
fff2,
ffe3,
0005,
0014,
fff0,
000d,
fff7,
000b,
fffe,
0026,
fffb,
000e,
ffef,
fffe,
fff9,
0011,
000f,
fffd,
001f,
0001,
fffb,
000a,
002a,
fff5,
fff2,
0005,
0007,
0008,
000f,
fff8,
0015,
ffee,
fff7,
0017,
fff7,
ffed,
0013,
0000,
0001,
0002,
0014,
fff8,
0005,
001e,
0007,
0002,
0000,
fff7,
000b,
0022,
ffef,
001a,
0012,
000f,
0014,
ffea,
000b,
fffb,
ffe6,
fff4,
ffe5,
fff7,
0001,
ffe8,
0010,
000e,
ffe7,
fff9,
fff8,
fff3,
fff6,
ffde,
fff0,
0004,
ffef,
fffb,
0000,
ffff,
0005,
000e,
ffe5,
ffef,
0010,
fffd,
0009,
000f,
0001,
ffe7,
fff4,
0000,
000c,
fff1,
fffb,
0009,
0008,
0016,
0005,
fff3,
0002,
000d,
fff8,
0003,
fffb,
fff4,
0000,
fff5,
0012,
fff8,
fff0,
002c,
ffe6,
ffec,
000a,
000b,
001d,
fff6,
0022,
000c,
0018,
000c,
000b,
0016,
0016,
0022,
0023,
0010,
0007,
000c,
0019,
0001,
0000,
fff0,
0027,
0011,
0020,
0010,
000e,
fff3,
0005,
000d,
000f,
0000,
0004,
fff5,
0015,
001e,
fff5,
fff7,
0019,
ffee,
0002,
000b,
001b,
0011,
fff1,
fff6,
fff0,
ffe8,
fffe,
000b,
fffe,
0008,
fff2,
0006,
fff0,
fff3,
001a,
ffea,
0009,
fff5,
fffd,
0009,
fff3,
fff0,
ffef,
fff8,
001d,
001b,
fffd,
000f,
0008,
fffd,
fffd,
000d,
0007,
0019,
0002,
000b,
ffee,
fffb,
0009,
001d,
0012,
fff5,
ffeb,
fff3,
0005,
0023,
fffa,
0006,
fffe,
fffe,
fff4,
0014,
fff2,
0022,
0000,
0017,
0011,
ffd6,
0003,
0011,
fff5,
0020,
ffe7,
0000,
000b,
fffb,
fff2,
0027,
001b,
0000,
0005,
0004,
0003,
ffee,
fffa,
0003,
ffef,
0013,
000d,
0006,
ffec,
fff7,
ffff,
fff9,
fff3,
000d,
fff4,
ffee,
ffe8,
0000,
fffc,
0006,
0005,
0003,
0013,
000b,
001a,
0012,
000b,
fff9,
001c,
ffed,
ffee,
001a,
fff7,
001b,
0012,
ffed,
fff7,
ffe7,
0003,
0006,
000f,
fff8,
0004,
ffff,
000e,
0007,
0000,
0001,
fff9,
0024,
0005,
ffe7,
000b,
fff1,
ffed,
ffe6,
ffe4,
0012,
ffe8,
ffef,
0009,
ffe3,
000d,
fff1,
ffe6,
fffc,
fff9,
ffef,
0021,
fffe,
fff7,
fff4,
ffdd,
ffee,
0014,
0000,
ffde,
fffc,
0001,
fff9,
ffec,
ffe1,
0017,
ffff,
ffef,
0000,
ffea,
ffe6,
ffe4,
0000,
fff4,
fff2,
0001,
ffe7,
fff5,
ffe4,
000c,
ffcf,
0004,
ffe8,
ffe9,
ffe5,
0011,
0011,
000e,
fffb,
ffea,
0006,
0011,
0004,
fff7,
0013,
ffeb,
0001,
fff7,
fffd,
0008,
fffd,
001d,
001b,
000f,
0000,
0019,
fffd,
0012,
fffa,
0014,
001f,
fff4,
0024,
000a,
000d,
0010,
fff5,
000f,
fff5,
0011,
001a,
ffee,
0006,
0002,
0001,
0012,
0012,
fff4,
fff7,
fff4,
0000,
fff4,
0001,
fff9,
0008,
ffef,
ffe7,
fff8,
000a,
ffef,
0001,
0013,
000a,
000d,
0009,
fff3,
0013,
000e,
ffff,
ffdf,
0030,
001c,
ffec,
000d,
fff0,
ffee,
0012,
0003,
000f,
fffd,
ffef,
fffd,
fff3,
ffea,
ffe8,
000e,
fffa,
fff2,
000f,
ffeb,
ffe3,
ffef,
fff9,
0016,
fffb,
000e,
0008,
ffe4,
ffea,
ffd6,
0016,
0006,
ffff,
ffea,
0012,
ffed,
0011,
000d,
fff6,
fff9,
000e,
0005,
ffe1,
000e,
0000,
0009,
fff3,
fffb,
001e,
fffd,
fffd,
0011,
000d,
0012,
fff6,
fffe,
0012,
ffea,
0012,
fffe,
fffe,
000e,
ffe7,
ffe5,
fff1,
fff5,
0010,
0004,
fff1,
ffea,
000a,
000d,
0000,
ffe3,
fff8,
0004,
fff9,
ffef,
0004,
0000,
fff8,
0014,
ffd2,
fff4,
0010,
fffe,
000f,
0023,
fff4,
fff8,
0000,
000e,
0011,
0004,
001a,
0005,
0000,
0003,
0011,
fff8,
0009,
ffeb,
0012,
0015,
fff7,
000f,
fff8,
001d,
0015,
ffe1,
ffdf,
001f,
0014,
0017,
0013,
fff4,
fffb,
fff6,
000d,
0004,
0010,
0000,
fff9,
0000,
fff6,
000b,
000e,
0015,
0005,
fffe,
0013,
ffee,
0001,
0007,
fffb,
0026,
fff5,
ffed,
001e,
fffb,
0004,
0026,
fffc,
0007,
0017,
0007,
ffec,
0001,
ffff,
000e,
0010,
001a,
fff7,
ffec,
fff7,
fff3,
000e,
0003,
0012,
fff3,
fff1,
fffe,
0019,
0001,
fffe,
ffed,
fffe,
0006,
fff4,
fffb,
ffff,
001d,
fff1,
ffeb,
0023,
fff6,
fffa,
000b,
fff6,
ffe9,
0000,
fffd,
ffe0,
0006,
0011,
fff9,
ffee,
000e,
0002,
0014,
0009,
fffe,
ffdc,
000e,
0020,
001e,
000f,
ffe3,
0010,
000b,
0014,
fff2,
0010,
0010,
0020,
001f,
0007,
ffff,
0004,
000b,
ffef,
0011,
ffff,
0028,
001b,
001d,
000a,
000e,
fff8,
fffe,
fff1,
0020,
0018,
0010,
0012,
002a,
0011,
0014,
fff7,
001e,
000f,
0025,
000d,
0009,
fff8,
ffea,
0008,
0013,
ffe1,
000f,
ffe0,
fff3,
0018,
fffd,
fff4,
ffec,
fffd,
fff7,
001c,
0007,
000c,
000c,
fffa,
ffed,
fff8,
0015,
ffe6,
fff6,
fff5,
0014,
fffe,
000b,
ffdc,
fff5,
fff5,
ffe6,
fff9,
000e,
0003,
ffef,
fff8,
000e,
fffd,
fffc,
0010,
fff4,
0017,
001e,
001d,
0011,
0001,
000e,
001a,
fff9,
fff9,
0021,
fff7,
001c,
0014,
0014,
fff2,
fffa,
0018,
fff2,
001e,
000c,
0018,
0009,
001f,
0010,
0018,
0002,
001c,
001d,
0000,
001a,
fff1,
0002,
fffd,
ffeb,
fff5,
ffed,
0007,
ffee,
000c,
ffff,
001a,
ffef,
0007,
0000,
0009,
fff5,
0000,
0019,
001c,
000a,
0006,
ffff,
fff8,
fff0,
0003,
fff8,
0002,
fff3,
fffa,
fffa,
0006,
ffee,
ffff,
000a,
0005,
fff8,
000e,
fff7,
0003,
000b,
000f,
0000,
ffea,
ffff,
ffe5,
fffc,
fff4,
ffff,
fff3,
fff5,
0002,
000d,
fff2,
0007,
ffe8,
0006,
000a,
ffe9,
fff9,
000e,
0018,
000d,
0013,
fffd,
0004,
0015,
ffe7,
0001,
fff4,
fffe,
000f,
fff6,
fff9,
fff5,
fffa,
fff0,
0019,
0023,
0004,
0000,
0006,
001b,
0003,
0020,
0006,
0007,
0012,
fffc,
ffd8,
0009,
0011,
002f,
0000,
001f,
0008,
0005,
001d,
0002,
0010,
0009,
0005,
0010,
fff5,
0010,
ffeb,
000d,
0002,
0003,
fffa,
0006,
0024,
000d,
fffe,
000a,
fffa,
0007,
000a,
000e,
ffe9,
0006,
ffe9,
0009,
0003,
0014,
fffc,
fff5,
000c,
000c,
fffc,
0009,
ffff,
0012,
fff6,
0013,
0010,
0013,
0010,
0003,
0005,
000c,
0003,
fffc,
0025,
0011,
fff9,
fff1,
fff2,
ffff,
0018,
ffe9,
0021,
0013,
0004,
fff0,
ffe2,
0010,
fffc,
000a,
0000,
0024,
0007,
ffff,
0002,
001d,
fff5,
000f,
0000,
fff6,
ffef,
ffeb,
000c,
fff1,
ffff,
fff7,
000a,
fff6,
0004,
fff7,
0000,
0009,
0003,
000a,
ffe2,
0019,
ffe7,
0025,
0021,
002c,
fff8,
ffdc,
ffe6,
ffff,
0014,
0016,
0000,
ffec,
0007,
0001,
fff6,
fffd,
ffd8,
0005,
0017,
0017,
ffec,
ffd5,
fff5,
0004,
000f,
0013,
ffe3,
fffd,
000f,
fffc,
fff2,
fff8,
ffff,
0003,
fffc,
ffee,
0013,
0005,
0021,
fff8,
fffa,
001d,
0005,
0017,
000f,
fff2,
fff6,
0013,
0000,
000d,
0011,
0010,
0008,
0024,
0019,
0021,
ffee,
0012,
000b,
0010,
0000,
000e,
fffc,
ffea,
001c,
0003,
0003,
0005,
0010,
001d,
fff7,
000d,
fffa,
0005,
0021,
ffe8,
0017,
000a,
ffee,
0007,
0013,
0015,
0005,
0001,
001b,
fff3,
0013,
0007,
ffea,
0020,
0000,
ffdf,
000c,
002a,
0004,
0012,
ffd8,
0005,
fff5,
ffd3,
0018,
ffcd,
ffe7,
fff2,
000e,
fffa,
ffd1,
ffc4,
ffe5,
000c,
fff0,
0019,
ffe7,
0000,
0015,
ffe6,
fffd,
ffd2,
0002,
ffd7,
001e,
fffe,
fff3,
ffd8,
fff2,
fffa,
ffea,
ffe8,
fffe,
0013,
ffeb,
ffdc,
ffee,
0005,
0007,
0000,
0016,
fff1,
000e,
001b,
0016,
ffe8,
0002,
0004,
000f,
0010,
000d,
000c,
0002,
0012,
0009,
0006,
fffe,
0008,
fff6,
0025,
0020,
001a,
0002,
ffe6,
0020,
0014,
000a,
0007,
0004,
001e,
0026,
0023,
fff6,
000a,
000d,
0000,
000d,
000e,
fffb,
001c,
0024,
ffdd,
fffc,
001b,
000a,
ffe7,
fffb,
ffff,
0012,
0007,
001e,
0003,
ffdd,
fff5,
0011,
0013,
000d,
0000,
0014,
fffb,
0000,
fff5,
ffeb,
ffdd,
001c,
0013,
ffe9,
ffe5,
ffeb,
ffe2,
000c,
0009,
001e,
0004,
fff2,
ffe2,
ffe7,
002c,
0002,
fff9,
0014,
0007,
000a,
002c,
0007,
0000,
fffb,
0008,
000b,
ffed,
fffd,
fff0,
ffee,
fff6,
0018,
0006,
0013,
000d,
0008,
000c,
fff6,
0015,
0010,
fffa,
fff7,
ffea,
000a,
ffe7,
fffb,
ffe9,
0001,
0002,
ffff,
fff5,
0007,
0000,
001f,
0002,
fff0,
0012,
fffd,
0009,
fffe,
ffec,
fff1,
fff9,
ffed,
ffed,
fff2,
ffea,
0005,
ffff,
fffd,
0003,
0013,
0019,
000d,
ffd8,
ffeb,
0005,
ffff,
0016,
ffea,
fff0,
0016,
ffee,
fff2,
fff2,
000c,
ffe6,
fff0,
ffef,
fffb,
000e,
001b,
000f,
ffe7,
0014,
fff3,
000e,
0005,
000b,
0007,
ffec,
001d,
fff6,
ffd6,
ffe8,
fffc,
0011,
0000,
000e,
0002,
fff8,
001c,
0021,
0014,
000f,
ffe8,
0012,
fffe,
0007,
0001,
fffe,
000a,
ffff,
0015,
0020,
0000,
000b,
0008,
000e,
001b,
fffe,
000c,
0009,
0002,
fff4,
000c,
0003,
000d,
0001,
0000,
fffa,
000f,
ffee,
fff2,
0004,
ffee,
fff4,
0009,
ffdf,
0009,
001b,
fffd,
001a,
0010,
0013,
0018,
0007,
fff3,
ffe0,
ffee,
0019,
0023,
0011,
000b,
fffb,
fffc,
fffc,
fffb,
0007,
fff4,
0017,
fffe,
fffe,
fffd,
fff5,
fffc,
000c,
000b,
0016,
fff3,
0018,
0021,
0016,
ffdf,
fff4,
fff7,
0013,
fff2,
0036,
0017,
001a,
0007,
000b,
fff6,
0009,
0003,
0018,
fff1,
0006,
fff0,
000b,
fffc,
fffb,
001a,
0017,
000b,
0012,
0022,
0017,
0002,
fffc,
000b,
0023,
0006,
000a,
0002,
0014,
fffc,
002a,
000d,
0019,
000d,
ffe7,
001f,
000b,
fffd,
000c,
0002,
0006,
0024,
000d,
ffed,
000b,
ffec,
0019,
0012,
fff2,
0005,
0006,
0014,
0004,
0009,
0002,
fff7,
0015,
0000,
fff8,
fff5,
0001,
ffe7,
0003,
ffec,
0017,
0000,
ffd9,
fff2,
fffb,
0030,
fffa,
fffc,
0013,
0013,
ffe8,
fff0,
ffec,
ffe9,
0004,
0000,
000c,
fff4,
000e,
0004,
fff1,
0001,
000a,
000b,
0005,
fffe,
0007,
0008,
fff9,
ffef,
0016,
ffff,
0007,
0020,
0013,
fff9,
fff3,
fff5,
fffc,
fff4,
0016,
000b,
fff1,
0020,
000c,
ffea,
0010,
000b,
0018,
001d,
000c,
0022,
0013,
0003,
000e,
0000,
0020,
001d,
000f,
0001,
fffa,
fff8,
0017,
0016,
0024,
fff9,
0011,
fff3,
000b,
fffe,
0006,
0017,
0007,
0012,
fff1,
ffe8,
fff0,
fff3,
fffb,
ffed,
0007,
ffee,
ffe5,
ffee,
0001,
0015,
0003,
fff2,
fff1,
001c,
ffe7,
ffe3,
fffc,
fffa,
fff2,
0005,
ffd4,
ffe5,
ffd5,
fff0,
fff1,
0028,
fff3,
ffea,
ffe3,
ffea,
ffe5,
ffd2,
ffed,
ffdb,
fffc,
fff7,
ffed,
fff8,
ffc4,
ffda,
0004,
0014,
fff3,
000f,
0002,
fffa,
ffed,
ffe5,
fff4,
ffc9,
fff5,
ffee,
fff2,
0006,
ffe1,
0015,
0006,
0002,
fff3,
fffb,
ffef,
fff5,
fff0,
0006,
0009,
0013,
0014,
0016,
000a,
0001,
ffff,
fff6,
000b,
0000,
0011,
0023,
fffb,
0007,
0018,
0019,
000d,
002c,
001b,
0018,
0017,
0009,
0007,
fffe,
fff0,
0004,
fff7,
0008,
ffd1,
0004,
0002,
ffd7,
fffa,
ffdb,
ffeb,
001d,
fff3,
0024,
ffdc,
fffd,
0010,
0038,
0017,
000d,
ffb5,
0007,
000d,
ffe0,
0006,
ffe9,
0004,
0021,
ffe9,
fff6,
ffda,
0005,
fffd,
001a,
0006,
fff7,
ffe7,
ffe5,
0002,
ffd7,
fff0,
ffe6,
002c,
0001,
fff2,
fff8,
ffed,
fffd,
ffdd,
0000,
fffd,
fff0,
ffd6,
fff2,
0004,
0006,
001e,
fff6,
fff4,
000c,
ffef,
001b,
0015,
0014,
fff9,
001a,
0018,
fffd,
0007,
0014,
001a,
fff2,
000d,
0005,
fffc,
fffe,
001c,
000f,
fff5,
0012,
000a,
fffc,
fffe,
0008,
001b,
0011,
0000,
fff8,
fffd,
fff3,
0002,
000e,
001d,
001f,
001c,
ffd9,
0005,
fffe,
ffea,
000e,
fffc,
ffeb,
0009,
ffdd,
0009,
000f,
0022,
ffff,
0013,
000d,
0006,
ffd2,
fff9,
0030,
0020,
0000,
ffea,
fffb,
000c,
fffd,
fff7,
0004,
0002,
0015,
fff2,
0010,
000c,
ffee,
001a,
0019,
0013,
0023,
fff8,
0017,
fff8,
0016,
0002,
0018,
000b,
0010,
0017,
000f,
fff5,
fff7,
fff1,
ffe3,
0006,
000e,
0014,
ffea,
0005,
0011,
000b,
0016,
000b,
0008,
000b,
0002,
ffea,
fff5,
fffb,
0013,
0006,
fff7,
ffee,
ffe5,
fff2,
000c,
0016,
000f,
0005,
ffff,
0008,
0012,
ffe5,
ffee,
ffff,
fff8,
000d,
0011,
fff9,
000d,
ffde,
ffff,
0018,
0002,
0012,
fffb,
ffee,
ffe8,
000a,
fffd,
000a,
000c,
fff1,
0020,
0018,
ffd5,
ffeb,
0006,
0000,
0008,
000f,
ffe6,
ffed,
fffc,
000e,
ffe7,
fff0,
0000,
ffef,
fffb,
0011,
0014,
fff0,
0016,
fffc,
ffed,
0009,
0008,
0005,
000b,
fffa,
fffd,
0001,
0000,
0006,
0010,
0004,
001e,
fffc,
000b,
0008,
000a,
0001,
000c,
fffc,
fff2,
0016,
ffe0,
ffff,
0008,
0014,
0006,
0012,
0000,
000c,
0004,
000e,
fff0,
fff6,
fffe,
ffff,
000d,
000b,
ffee,
ffdc,
ffee,
0000,
0009,
ffd1,
ffec,
0004,
0011,
ffef,
0000,
0000,
fffd,
fffd,
ffeb,
fff2,
ffff,
0003,
fff4,
fff1,
0003,
ffe4,
001b,
0001,
fffb,
ffee,
fff0,
0008,
0003,
0008,
0006,
000d,
000e,
0003,
fff9,
0010,
fffd,
ffec,
0011,
000c,
ffef,
0006,
fff0,
fff5,
ffed,
0011,
001a,
0016,
0007,
0011,
0008,
0001,
0006,
0000,
fff5,
fff3,
fff1,
fff8,
fff5,
000e,
ffeb,
fff7,
0002,
ffef,
fff9,
ffff,
001e,
fff8,
001a,
0008,
ffff,
0003,
0017,
001b,
fff5,
0025,
fff1,
0026,
fff5,
0010,
0003,
ffef,
0007,
000f,
0003,
000f,
001e,
000c,
0000,
000c,
0004,
0027,
ffee,
0013,
fff7,
0016,
ffee,
0001,
0013,
0015,
0012,
000b,
fffc,
0000,
ffe8,
fff2,
0001,
0006,
ffeb,
0020,
0010,
fffd,
001d,
ffff,
001c,
001a,
0021,
0019,
0000,
0013,
001c,
0018,
000b,
001d,
fff5,
0017,
0009,
001a,
ffff,
0003,
fff9,
ffec,
0006,
0006,
000d,
fff4,
000a,
000e,
0017,
ffee,
0012,
0018,
001a,
fffa,
ffef,
0000,
ffea,
0013,
0002,
fff5,
0006,
fff5,
000a,
0019,
0028,
fff1,
000e,
fff9,
0000,
fff2,
fff8,
ffee,
000d,
000f,
0003,
ffed,
0000,
0009,
0023,
0012,
0034,
fff0,
000d,
fffd,
0003,
ffec,
000f,
0009,
0000,
fff7,
0008,
ffef,
fffd,
0010,
0006,
0002,
0030,
fffa,
ffec,
fff5,
0011,
000c,
fffd,
0015,
ffef,
fff3,
ffdf,
ffff,
fffa,
0002,
ffe5,
0002,
ffff,
fff3,
0010,
ffee,
ffeb,
000b,
ffe5,
fffe,
000e,
0008,
fff1,
fff8,
fffe,
fffb,
0000,
ffe5,
0009,
000a,
ffeb,
0015,
0005,
ffe9,
fff5,
fff8,
ffff,
fff9,
fffa,
000d,
fffa,
0000,
0019,
fff9,
fff2,
fff2,
ffff,
ffff,
000f,
fff5,
0010,
000e,
ffd9,
ffe4,
ffe4,
fff5,
ffef,
ffee,
001b,
0012,
001d,
000c,
0005,
ffe0,
0004,
0006,
fff5,
0002,
fff8,
fff8,
0012,
ffef,
ffed,
000c,
0011,
fff0,
001c,
ffdf,
0005,
fff2,
0003,
fff8,
0019,
000e,
0007,
0018,
001b,
0028,
000d,
fff7,
fff6,
fffc,
000a,
0003,
0010,
000a,
0000,
000e,
0015,
fff7,
0013,
ffff,
fffb,
fffe,
001b,
ffef,
0002,
fff3,
fff1,
ffef,
0004,
0000,
ffe8,
ffea,
0002,
0006,
001b,
fff5,
fffd,
0001,
0002,
fff6,
ffeb,
ffff,
fff7,
0019,
0003,
0009,
0001,
fff2,
0020,
0019,
0004,
ffe4,
fff0,
fffa,
ffff,
000c,
001a,
000a,
0020,
ffea,
fff1,
0014,
000c,
001c,
fff6,
0016,
001d,
ffff,
ffea,
0018,
fff2,
ffee,
001f,
ffe8,
0026,
fffb,
fffa,
000e,
0002,
000b,
fffd,
000b,
ffd9,
ffe5,
0006,
0019,
fffd,
001a,
0000,
fffc,
fffd,
ffe7,
0000,
000f,
fffb,
ffed,
001a,
0013,
fff0,
0015,
0004,
0012,
fffe,
fff3,
fffb,
fffe,
ffeb,
ffea,
0013,
0000,
fff8,
000e,
0006,
0004,
fffe,
fffa,
0008,
fff5,
0008,
0014,
000b,
fff6,
ffe1,
fffb,
000e,
000f,
fff4,
ffef,
ffe6,
ffec,
fffc,
fff5,
fff0,
fff4,
000e,
fffa,
ffed,
fff1,
fff6,
fff6,
fff0,
ffff,
fff1,
fff9,
000b,
0000,
0005,
000f,
0007,
ffff,
ffec,
000b,
fffe,
ffee,
000b,
fff2,
ffea,
0007,
0009,
ffe8,
0014,
ffed,
0003,
000b,
fffc,
ffec,
000e,
0019,
0006,
fff9,
ffe2,
fff9,
0011,
fffa,
000e,
ffe4,
001b,
0023,
ffca,
fffd,
0000,
ffdf,
0009,
0010,
fff2,
001f,
ffea,
000e,
ffee,
ffe9,
ffed,
fff2,
fff9,
000c,
000e,
fff5,
0009,
fff9,
0000,
fffd,
000f,
0017,
ffee,
0008,
000f,
ffd5,
000a,
ffea,
fff8,
0000,
fff4,
fff0,
fff9,
ffee,
ffda,
0000,
0015,
000e,
fff4,
ffee,
fffb,
ffff,
0007,
fffe,
0013,
fff4,
0012,
000b,
fff6,
fffd,
fff8,
0001,
0010,
0010,
001b,
001f,
0010,
ffed,
fff0,
fffe,
000e,
ffee,
000a,
0007,
ffeb,
fffe,
0001,
001f,
ffdd,
fff3,
0001,
0002,
0018,
fff4,
0015,
fffa,
0006,
fff6,
0011,
fffe,
001d,
0002,
fff5,
0019,
fffe,
0006,
fffb,
0009,
0007,
000b,
0017,
0014,
0002,
0008,
000c,
000f,
0003,
0026,
ffdd,
ffff,
0023,
0011,
fffc,
0012,
fff4,
fff0,
fff0,
000a,
0006,
ffec,
fff9,
fff8,
0008,
0013,
000f,
0013,
0004,
ffef,
0007,
000b,
001a,
0022,
0021,
000e,
0026,
000a,
000e,
0019,
000f,
000c,
fff1,
fff3,
fffd,
0013,
fffd,
0005,
fffb,
0006,
0025,
0023,
0025,
0000,
000f,
fff7,
fffd,
001d,
0007,
001c,
000b,
0002,
0004,
fffa,
fff7,
0008,
fff1,
0015,
0002,
0003,
fff6,
0002,
0009,
0017,
fffb,
0005,
0012,
fff9,
001a,
001b,
fff6,
0013,
fff7,
0005,
fffe,
000f,
0015,
ffe4,
fff3,
0015,
fffe,
ffff,
0013,
0017,
fff2,
0012,
0002,
fff6,
0009,
000a,
0000,
0002,
0009,
0001,
fffe,
000f,
0010,
ffed,
fff4,
0001,
fff6,
0000,
0016,
fff2,
0006,
001c,
ffee,
0011,
fff4,
000c,
fff3,
0018,
002c,
fff4,
0002,
ffea,
0009,
fffa,
0000,
0010,
0008,
000e,
001f,
0018,
0015,
0014,
ffff,
002d,
000a,
000c,
000d,
0000,
fff6,
ffff,
fffc,
0011,
0007,
0006,
0015,
fffd,
0001,
fff4,
0007,
0021,
0007,
fff6,
0011,
ffff,
0009,
0000,
000f,
000a,
fff3,
0005,
fff2,
0005,
fff7,
ffe6,
ffec,
0001,
0010,
fff1,
0016,
000b,
0004,
0015,
ffed,
000c,
fff7,
000c,
0002,
000c,
0013,
000d,
000c,
0000,
fff7,
0010,
fffc,
fff8,
fff1,
fff4,
0009,
001c,
001e,
0015,
fff6,
0007,
ffe9,
0010,
fff0,
fff0,
0000,
fff9,
ffe3,
fff6,
ffcf,
fffd,
ffeb,
fff1,
ffff,
fffe,
fff8,
fffb,
fffe,
001a,
ffee,
fff7,
fff1,
ffef,
000e,
ffff,
0017,
0012,
fffb,
ffec,
0009,
fff4,
fff2,
000e,
0010,
0009,
fff2,
0001,
0009,
0019,
000f,
0009,
fff2,
001a,
000f,
ffef,
000c,
fffd,
fffb,
fff7,
0014,
0011,
fffe,
ffea,
0004,
fff0,
0000,
0014,
fff3,
000b,
001b,
0004,
fff2,
fffe,
0012,
0009,
ffff,
0010,
0000,
ffee,
fff9,
000f,
ffcd,
0000,
000f,
fff7,
0006,
0006,
0003,
fffb,
0004,
0012,
0034,
001c,
000e,
fff5,
fff1,
0006,
ffea,
0013,
ffeb,
0011,
000d,
001b,
0021,
0004,
fff3,
000b,
0019,
0025,
ffff,
0014,
fffb,
0015,
ffec,
0010,
fff4,
0003,
fffa,
0035,
0015,
0013,
fffa,
ffee,
0010,
0014,
fff2,
0008,
0001,
0004,
fff2,
001c,
fffb,
000a,
ffef,
fff0,
fff8,
fff1,
0010,
0000,
ffef,
0016,
fff0,
ffed,
fff5,
001c,
0017,
fffd,
001c,
fff0,
fff9,
fff4,
001e,
000d,
000c,
0000,
ffef,
fffa,
0003,
0001,
fff7,
0012,
0015,
fff4,
fffd,
0003,
fff7,
ffee,
fffb,
fff7,
000a,
fff3,
001b,
fff2,
000a,
fff0,
fff9,
0000,
ffe7,
fff0,
fffc,
0004,
000e,
fff6,
ffff,
001b,
0006,
0003,
0001,
0011,
0018,
000f,
fffb,
0005,
0001,
ffeb,
0011,
001e,
0006,
fffa,
0023,
0003,
ffe9,
0009,
002d,
0006,
001e,
0015,
000e,
000a,
ffea,
000a,
0004,
001a,
0000,
001c,
0017,
0012,
fff8,
0009,
0004,
fff2,
0008,
0002,
0000,
ffe0,
0014,
000a,
000d,
0019,
000a,
0027,
0002,
0013,
ffde,
fffa,
001d,
ffe8,
0016,
fff7,
000f,
0004,
000e,
ffe5,
001d,
000b,
000e,
0001,
000a,
0012,
000f,
0011,
fff1,
fffa,
0015,
fffe,
fff2,
0002,
0017,
000a,
0033,
fff3,
0006,
ffed,
0014,
fff9,
0014,
0010,
000c,
fff2,
001d,
0006,
0007,
0012,
0014,
0014,
001f,
000e,
fff3,
0003,
0007,
ffeb,
001e,
0000,
ffe7,
0009,
fff1,
0015,
0010,
0011,
0016,
000d,
0022,
fff9,
000a,
fff4,
fff8,
0003,
0005,
ffed,
0028,
ffee,
fff8,
0001,
ffea,
ffea,
0012,
000d,
ffe5,
ffef,
ffe5,
fffc,
ffe8,
ffe9,
000b,
fff2,
0006,
0007,
ffff,
ffe4,
fffd,
ffe7,
ffe7,
ffec,
0009,
ffef,
0006,
000a,
fffb,
0000,
0007,
0006,
000d,
fff9,
fff1,
000b,
0003,
0005,
0003,
0007,
0009,
000e,
fff4,
000b,
ffff,
fff4,
0014,
000b,
fff0,
0002,
fff0,
0018,
0002,
fff3,
000e,
ffec,
fff6,
fff0,
0002,
0015,
fff2,
fff7,
0017,
0004,
ffe9,
0002,
fff8,
0001,
0023,
ffff,
fffa,
0009,
fff2,
000c,
fff5,
0007,
ffef,
fff5,
fffb,
ffe8,
0016,
0005,
0001,
fffa,
0003,
0015,
000b,
ffee,
ffe6,
0008,
fff9,
fff6,
fffa,
fff1,
0019,
000a,
0020,
000a,
0003,
fff1,
fffe,
fff0,
000d,
0011,
fffa,
000d,
fff6,
fffa,
fff8,
0001,
0009,
0004,
0008,
0009,
0002,
fffe,
0002,
fffd,
0006,
0010,
ffdf,
001a,
0003,
0004,
0011,
000f,
000a,
0000,
fff5,
fffe,
000f,
0005,
000f,
001f,
ffeb,
000f,
fff2,
fff3,
ffee,
0019,
0003,
ffec,
fff5,
fff8,
fff4,
000b,
ffff,
0005,
0008,
0000,
fff7,
000b,
ffee,
fff6,
0016,
0006,
fff1,
000b,
000b,
fffa,
fff4,
ffe7,
0017,
fff2,
fff7,
fffe,
0012,
001f,
0016,
fff7,
ffee,
0015,
0014,
0014,
ffdf,
fff3,
fff9,
0011,
ffef,
fff8,
000c,
0013,
0007,
000d,
fffe,
0002,
0005,
0010,
001a,
0017,
fffe,
000a,
000e,
0008,
000f,
001d,
0002,
001d,
ffee,
0008,
000f,
0018,
001f,
0014,
0018,
0002,
000d,
fff8,
fff2,
fff7,
fffa,
0020,
ffe1,
ffff,
0007,
fffe,
0005,
0016,
001b,
0017,
fffe,
ffff,
ffe4,
fffc,
ffff,
fffb,
0010,
0007,
ffd4,
fff6,
000e,
0018,
0001,
0000,
ffef,
ffea,
001f,
0013,
ffdf,
000b,
fff7,
ffff,
0009,
0000,
0007,
ffe5,
0008,
0010,
0007,
fff3,
0002,
ffff,
fffd,
ffed,
001d,
0006,
0007,
000e,
ffff,
ffee,
fffb,
0013,
0012,
fffb,
0000,
ffe5,
fff3,
000f,
ffea,
fff5,
ffff,
fff1,
0004,
0005,
ffed,
ffed,
fff4,
fff4,
fff8,
ffe7,
002a,
ffde,
0006,
0007,
ffcf,
000b,
0001,
fff5,
0011,
fffe,
fffe,
ffe9,
0002,
ffe2,
0010,
ffd6,
0031,
fff6,
ffeb,
0018,
000d,
0018,
fffa,
fffd,
0004,
ffe9,
000a,
ffe4,
ffeb,
fff9,
fff0,
ffe9,
ffff,
fffb,
fff9,
0009,
0005,
0004,
0005,
0009,
fffa,
000a,
0001,
fffd,
fffe,
000f,
ffdb,
000f,
001a,
0003,
fff3,
0003,
0013,
0010,
fff8,
0000,
0016,
0015,
0007,
0011,
ffff,
0013,
fffc,
ffec,
0005,
fff6,
0020,
0008,
fff3,
0000,
fffc,
0014,
0019,
fff6,
ffee,
fff8,
ffdd,
000b,
0009,
ffe4,
fffa,
fffe,
fff2,
0006,
fffb,
ffea,
0001,
000b,
0000,
0000,
ffef,
ffed,
ffdf,
0003,
fff1,
0009,
ffe6,
fffa,
ffe5,
fff3,
ffeb,
0005,
ffef,
001a,
fff4,
0000,
000d,
0005,
0017,
ffea,
ffce,
ffe8,
000a,
0012,
fffc,
0013,
001d,
0006,
fffc,
0009,
0002,
ffee,
0000,
0008,
0013,
fff2,
ffda,
ffea,
0003,
fffb,
ffed,
0015,
000b,
0001,
ffe2,
fff9,
fff6,
fff0,
0014,
ffe9,
0000,
0014,
fff8,
fff2,
ffe4,
ffed,
fffb,
001a,
ffed,
ffff,
ffe2,
fff1,
fffa,
0011,
ffe3,
fff5,
fff4,
0009,
fff4,
fff6,
ffed,
0007,
000d,
000a,
0009,
fff7,
000c,
0005,
000b,
0029,
ffeb,
000c,
0001,
0015,
0022,
000e,
fff6,
0009,
0004,
fff6,
fff2,
fffc,
000a,
0012,
fffc,
0013,
fff1,
001d,
000c,
0020,
0009,
000d,
fff9,
ffe9,
fffc,
0011,
0003,
0008,
0008,
0005,
fff7,
0010,
fffa,
0009,
002f,
0012,
ffe6,
0000,
0000,
0018,
fffc,
000b,
ffef,
0012,
0017,
0010,
0007,
001c,
ffff,
000d,
0015,
fff9,
ffd5,
0000,
fff8,
0007,
0012,
000e,
ffde,
000f,
ffef,
0007,
0010,
000e,
000c,
000d,
000c,
0013,
0002,
000f,
fffc,
fff3,
ffea,
fff7,
ffe2,
fffe,
0015,
fffd,
fff2,
fff2,
fff2,
0000,
0012,
0009,
ffef,
0013,
0002,
0003,
0000,
ffe5,
0002,
001c,
0024,
002f,
000f,
000d,
0008,
fffb,
0007,
002a,
0015,
0001,
fff9,
fffa,
000c,
0011,
0014,
001a,
0014,
000d,
fff6,
fffc,
0003,
0009,
000a,
002c,
0000,
0015,
000c,
fffc,
0015,
ffe7,
000f,
fffd,
fff4,
001c,
fffc,
0015,
ffff,
ffee,
0001,
0000,
0008,
0001,
001f,
fff0,
0006,
ffe8,
fff3,
fff7,
0004,
0014,
fffd,
000f,
0022,
0018,
001b,
0009,
0025,
001a,
0024,
0016,
0016,
fffb,
fff5,
fff4,
ffff,
0021,
ffed,
0010,
0018,
0014,
0012,
0008,
ffef,
0003,
fff0,
0000,
fff9,
0000,
000c,
fff9,
0017,
fffa,
000a,
0007,
ffff,
fffd,
000f,
000d,
0005,
0022,
fffe,
000c,
fffb,
0002,
fffe,
0025,
ffe9,
0020,
000a,
fffd,
0021,
000e,
fff7,
fff2,
002d,
0005,
002b,
fffa,
0001,
001c,
001c,
002f,
0000,
0006,
0022,
ffe7,
0021,
fffe,
fff2,
0011,
0026,
0025,
0022,
ffe8,
fffe,
0021,
fffd,
0010,
000f,
fff3,
fff9,
ffe7,
fffc,
0008,
fffa,
fffb,
0039,
0012,
000d,
ffda,
fff0,
fff0,
fffd,
0011,
ffe6,
ffe5,
fffd,
ffe6,
0010,
000e,
ffe0,
ffe1,
002e,
ffff,
0014,
ffcc,
0007,
ffec,
0007,
0005,
fffc,
fffa,
ffd6,
fff4,
0014,
fff9,
fff1,
fff3,
0007,
0017,
0020,
ffdf,
fffd,
ffec,
0010,
000d,
ffff,
ffee,
0002,
fff1,
0021,
0017,
fff3,
0000,
002b,
ffed,
0022,
000c,
fff9,
ffff,
ffe6,
fffd,
ffcf,
fffd,
0011,
fffe,
fffc,
0023,
ffc4,
ffda,
0016,
fff3,
0000,
0001,
fff8,
ffed,
ffec,
0019,
ffd6,
fff1,
0003,
ffef,
fff1,
000e,
fff6,
ffd4,
0000,
ffda,
ffe8,
ffe2,
ffda,
fffa,
ffed,
0009,
fff1,
ffce,
fff8,
ffd3,
ffda,
0011,
ffdf,
ffe1,
ffe4,
ffc4,
ffd9,
ffca,
ffd3,
0008,
fff3,
ffea,
000c,
ffd8,
fff6,
ffd6,
ffef,
001b,
ffd0,
fff5,
ffd7,
ffd9,
ffde,
ffc3,
ffc9,
ffe9,
fff2,
ffef,
ffef,
fffb,
ffca,
ffee,
ffe3,
0020,
ffec,
fff9,
fffe,
ffd8,
0001,
ffd4,
ffd1,
fff2,
000d,
001c,
fff1,
0008,
fff1,
ffe0,
ffdc,
0013,
ffe2,
ffec,
000c,
0006,
ffe8,
fff5,
ffdb,
0002,
0002,
ffee,
fff5,
fff4,
001c,
0002,
ffff,
000e,
fff5,
ffe8,
fffb,
0011,
fff7,
fff1,
fff1,
fff1,
ffe1,
000a,
0005,
0000,
0025,
0007,
fffb,
fffb,
fff9,
fff8,
0020,
ffff,
0008,
0001,
0014,
fff7,
0015,
0000,
0000,
fff9,
0015,
0005,
0018,
001f,
0022,
0005,
fffd,
fff2,
ffdc,
fffb,
fffa,
000c,
0008,
0014,
0001,
0012,
fff8,
ffed,
0002,
000c,
fffe,
000b,
0000,
fff1,
ffc6,
ffea,
fffa,
001b,
0020,
0010,
fff7,
0013,
ffe8,
fff9,
0008,
fff5,
ffec,
ffe8,
0007,
ffef,
ffeb,
000b,
001a,
0012,
0024,
fffe,
fff6,
ffff,
fff1,
0017,
000a,
0001,
002a,
0010,
000f,
0012,
0006,
0006,
000c,
0003,
ffef,
0001,
ffe1,
0010,
0008,
000b,
ffe1,
fff5,
fff4,
ffe2,
ffe4,
fff2,
fff9,
0002,
ffff,
ffe4,
ffff,
fffd,
ffdd,
ffe9,
0027,
0005,
ffe8,
ffff,
0017,
fff2,
ffec,
fff5,
ffef,
0004,
fffd,
fffa,
0004,
ffd3,
fffa,
0003,
0011,
0016,
fff6,
0003,
ffff,
0000,
ffd5,
0006,
ffdd,
000c,
ffee,
0006,
ffff,
0000,
fff8,
fff0,
0008,
ffed,
fff8,
0008,
0008,
ffff,
fff3,
000a,
0006,
0002,
fffe,
0018,
0020,
0000,
0009,
0015,
0007,
000d,
fff5,
0006,
fff4,
0013,
fffe,
0015,
ffe4,
fff9,
0011,
001f,
000d,
001a,
fff7,
fffa,
0005,
0009,
fffe,
001c,
ffee,
0013,
fff4,
0015,
0003,
0013,
0009,
0005,
001d,
fff3,
ffe1,
ffda,
0011,
0014,
0000,
ffda,
ffff,
0008,
ffdc,
0003,
ffe8,
ffff,
ffff,
fff8,
0001,
ffdd,
000a,
000b,
ffe9,
0011,
0007,
ffd3,
fffe,
0005,
ffda,
0011,
ffe1,
fff8,
fffd,
fff2,
fffd,
0003,
fff0,
ffff,
0015,
000f,
000c,
ffff,
fff8,
ffe6,
ffff,
0002,
ffeb,
0005,
fffe,
0001,
ffea,
0007,
ffdd,
0000,
ffff,
0003,
0000,
ffe4,
ffe5,
0004,
ffe6,
fff8,
000f,
fffb,
0006,
0026,
0014,
000c,
ffef,
0006,
fff6,
fff9,
fff3,
ffdf,
fffb,
0013,
fff7,
001a,
ffe2,
0019,
0015,
0006,
0011,
0004,
fff5,
0007,
fffd,
fff5,
0012,
0010,
0004,
0009,
fff2,
0005,
ffeb,
0007,
0017,
fffa,
0014,
ffee,
0001,
fffe,
ffeb,
fffe,
fff2,
fff8,
0010,
000c,
000a,
0006,
0010,
fff2,
000c,
0009,
fff8,
ffde,
0002,
fff3,
0005,
0002,
001b,
ffc5,
ffef,
001e,
001b,
fffa,
ffff,
fff2,
0001,
fff6,
ffe2,
fff6,
fff5,
0002,
002c,
0004,
0009,
fff9,
0017,
ffec,
ffe7,
000e,
fff5,
0012,
0022,
0000,
ffec,
0008,
001a,
000f,
ffe1,
000b,
ffec,
001a,
001d,
0000,
fff2,
ffee,
fffc,
fff1,
ffee,
0014,
0006,
0018,
0000,
0001,
000b,
fffd,
fff6,
0010,
0002,
0003,
001f,
0022,
0019,
fff5,
0005,
0018,
0001,
001a,
0000,
ffe5,
0007,
0012,
0025,
fff6,
fffa,
0007,
000d,
0012,
000d,
000f,
0009,
ffe6,
0002,
fff0,
ffe5,
000c,
000d,
ffe4,
001c,
fffb,
0000,
fff1,
fff5,
001d,
fff4,
0005,
fff8,
0006,
000d,
ffee,
fff0,
0007,
0029,
0016,
0015,
ffc9,
fffc,
0000,
fff7,
fffd,
ffe6,
0000,
fff9,
fff2,
000a,
0005,
ffde,
ffef,
000b,
0022,
fffb,
ffe7,
0004,
ffff,
ffe8,
000d,
fff9,
0032,
ffff,
ffea,
0009,
0016,
fffd,
0001,
ffee,
ffeb,
001a,
0005,
000e,
fffb,
000d,
0002,
0023,
fff8,
0015,
000d,
000e,
000c,
fffb,
000c,
0012,
000b,
0022,
fff7,
0013,
001e,
0019,
000b,
0021,
ffec,
fff1,
0008,
ffef,
0000,
0000,
ffe5,
fffd,
000a,
0003,
0009,
0016,
ffef,
0001,
0015,
000d,
ffed,
000a,
fff5,
0014,
0016,
ffda,
fff7,
000a,
fff9,
0012,
0014,
ffd9,
0012,
0019,
fff8,
0008,
ffee,
ffed,
0003,
fff3,
fff7,
fff1,
fff8,
001d,
000d,
0004,
0000,
0009,
ffe8,
fff7,
fffd,
ffff,
ffee,
000b,
0006,
0014,
001f,
fff5,
000d,
fffb,
001c,
000d,
0026,
ffe3,
0014,
0006,
0003,
fffb,
0007,
ffff,
0028,
000e,
0002,
0002,
000c,
000f,
0000,
0004,
0000,
ffec,
0010,
0016,
000c,
0023,
fffc,
0000,
000a,
000a,
000f,
0012,
fff0,
fff6,
000e,
0007,
ffff,
000b,
0005,
000e,
ffe7,
0015,
fffd,
0009,
fffe,
fff6,
0000,
fffe,
fff7,
0007,
fff9,
fff1,
0018,
0003,
ffff,
ffff,
0000,
fff4,
ffe7,
fffd,
fffa,
0005,
fff7,
fff0,
0000,
fff4,
fffa,
000f,
0000,
fffb,
ffff,
fffa,
ffe2,
000b,
fffb,
0005,
0004,
0013,
ffdd,
0000,
ffee,
ffea,
fff7,
0007,
ffec,
0020,
000a,
0000,
ffff,
fffa,
ffed,
ffed,
ffdb,
fffa,
ffcf,
ffec,
ffef,
fff0,
0015,
ffea,
0006,
0002,
fff7,
0013,
0010,
ffce,
ffe6,
ffef,
ffee,
ffe3,
fffc,
000c,
000d,
ffe6,
fff1,
ffe3,
0003,
000a,
0019,
0003,
0015,
0020,
0017,
0000,
000d,
fffe,
000e,
000c,
0011,
fff6,
0006,
fffc,
0009,
ffea,
000b,
0009,
fffc,
0003,
0009,
0009,
0005,
0009,
fff3,
ffef,
ffe8,
fffb,
ffe4,
001d,
ffee,
fffd,
fff9,
0014,
fffd,
000d,
fff7,
fff6,
ffee,
0009,
000a,
0004,
ffe2,
0012,
fff7,
ffee,
ffdd,
0000,
0010,
ffef,
000b,
ffe0,
fffe,
0010,
fff1,
fffe,
fffa,
ffff,
ffdf,
fff1,
fff2,
ffe6,
ffed,
0004,
fffb,
fff4,
000a,
ffca,
000b,
0014,
ffc9,
fff5,
ffe1,
fff6,
ffea,
ffe9,
0016,
000a,
ffde,
fff4,
0014,
fffa,
fffd,
ffd6,
ffef,
ffed,
ffbf,
ffec,
0018,
0014,
0009,
fffd,
000c,
ffec,
ffff,
ffff,
0010,
0006,
ffff,
0019,
fff9,
fff8,
ffd4,
ffe4,
0029,
ffef,
0000,
fffc,
ffed,
0010,
fff8,
fff6,
0003,
0024,
0010,
0018,
ffee,
ffe7,
0018,
000a,
000f,
000d,
fff9,
fffe,
0015,
0028,
fff7,
000b,
0012,
000d,
fffc,
002d,
000f,
0015,
0000,
0010,
ffe8,
fff6,
ffed,
0014,
0001,
fff8,
ffeb,
0013,
0019,
ffe1,
0012,
ffe9,
0006,
ffed,
ffe5,
0019,
fffd,
ffe4,
ffe5,
0035,
0020,
fff0,
ffc9,
000b,
fffe,
ffe8,
0009,
ffdc,
0022,
0021,
0002,
0016,
ffe9,
ffe6,
000a,
fff7,
001b,
0005,
ffe2,
fff7,
fff2,
ffe9,
0010,
ffe4,
0020,
0001,
fff6,
ffeb,
000e,
0011,
fff3,
001f,
000d,
fffd,
0020,
fff9,
0005,
fffe,
fff3,
0017,
000a,
fff5,
ffff,
fffa,
0020,
000a,
0000,
000e,
ffff,
000b,
0029,
0023,
0012,
ffee,
0005,
0016,
fff1,
ffee,
001a,
0028,
fff9,
fffe,
0000,
0000,
0004,
0015,
0025,
0001,
0008,
ffd2,
001c,
0001,
fffa,
0006,
0006,
0000,
0015,
ffd8,
fff8,
0001,
ffdf,
0009,
ffeb,
ffe6,
0004,
0001,
fff8,
0000,
0011,
ffe8,
0003,
001e,
0017,
ffd3,
fffa,
0024,
001a,
ffff,
000f,
fffa,
fffd,
ffe5,
000e,
fff0,
0013,
0010,
0001,
000a,
ffed,
0000,
001c,
0001,
0012,
000f,
fff4,
fff9,
000e,
ffec,
fffa,
0016,
fff9,
fffa,
001a,
ffe5,
fff2,
ffed,
ffe7,
0015,
fff6,
ffff,
fff2,
0003,
ffe8,
001d,
0008,
ffef,
000f,
000d,
001b,
fff1,
0003,
fffe,
0006,
000c,
fffe,
0000,
0005,
fff9,
0016,
ffff,
ffe7,
fff5,
ffe9,
fff0,
0008,
fffd,
ffe2,
fff8,
fffe,
fffc,
0006,
fff4,
fff2,
ffe9,
fffa,
fffa,
0008,
0000,
ffff,
001f,
fff3,
0001,
0008,
fff3,
0013,
0014,
ffda,
fffb,
ffff,
ffe3,
000e,
0003,
0000,
fff2,
fff9,
fffc,
fff9,
0004,
0027,
0004,
fff9,
ffe7,
fff5,
0019,
0004,
fff3,
0016,
0016,
0018,
0018,
fff9,
fff8,
0004,
fff7,
0013,
001d,
0028,
ffe9,
001a,
0005,
002f,
0018,
0008,
0006,
fff9,
000a,
fff8,
0002,
002b,
0008,
fff9,
000e,
000b,
0004,
fff5,
fff1,
0014,
000e,
000b,
0001,
ffef,
000b,
0008,
0000,
0011,
fff4,
ffd7,
ffe1,
fff4,
0003,
ffed,
0015,
ffe9,
fffd,
0019,
0013,
000d,
000b,
fffb,
fffd,
ffe5,
0009,
ffe3,
000a,
fff0,
fff9,
fffb,
000f,
ffff,
0010,
0004,
001c,
fffb,
000a,
0000,
0000,
ffed,
ffee,
000a,
0002,
fffa,
fff1,
ffe1,
000e,
0008,
fffe,
0009,
fff7,
ffe6,
ffe9,
fff9,
0002,
fff3,
ffe9,
0017,
000a,
ffef,
ffea,
fff3,
fff3,
0008,
ffee,
0019,
001d,
fff8,
0009,
0001,
0003,
fffb,
ffee,
fff8,
ffef,
ffff,
000d,
fff7,
0010,
001d,
0000,
ffe5,
fffa,
0019,
000a,
ffee,
0014,
0011,
0008,
001c,
000b,
0001,
0007,
000e,
0003,
ffea,
0006,
0009,
0005,
fff3,
0008,
fff1,
0005,
ffe4,
fff8,
fff1,
0004,
fffd,
fff3,
000e,
0008,
fff8,
ffe8,
fff4,
fff4,
0000,
0002,
0006,
fff1,
ffee,
0005,
fffc,
fff8,
000f,
0013,
0017,
0011,
0005,
fffe,
0003,
001c,
0006,
ffff,
fff2,
fff3,
ffff,
fff7,
0016,
0017,
0017,
0022,
ffed,
ffd5,
fffe,
ffec,
fff2,
0010,
0000,
fffe,
fffe,
fff2,
0014,
ffdc,
fffc,
ffe2,
0007,
002c,
ffdf,
fffa,
0022,
ffda,
0005,
0000,
ffdf,
0003,
fffc,
fff1,
0003,
fff3,
0009,
0007,
0000,
0005,
0006,
0002,
0005,
ffef,
0000,
ffe8,
0009,
ffda,
fffc,
ffed,
0006,
0008,
fffd,
0000,
0009,
001e,
ffee,
ffd2,
0003,
0019,
ffe3,
fffc,
0003,
fffa,
fff6,
fffc,
001c,
000b,
fffb,
000c,
fff8,
ffef,
ffe1,
ffe2,
0007,
ffee,
fff8,
0007,
000e,
ffff,
ffef,
ffeb,
ffef,
001b,
000e,
fffe,
fffb,
fff6,
0005,
000a,
0022,
0014,
0014,
0002,
0000,
fffb,
0005,
ffed,
0001,
ffea,
fffc,
0001,
ffea,
0010,
ffe6,
fff7,
0014,
fff8,
fff2,
001b,
ffe0,
ffee,
fff3,
0007,
0004,
ffe2,
fff7,
fff5,
fff6,
0035,
ffee,
fffa,
0018,
0000,
fff0,
ffe0,
fff8,
ffdf,
000c,
0010,
ffff,
fff5,
fffa,
0014,
fffa,
002c,
001b,
fffd,
fffe,
0011,
000b,
ffe3,
0011,
ffd9,
0013,
000b,
001b,
0012,
ffce,
0007,
0015,
001b,
0003,
fff1,
fff6,
0000,
0001,
ffe2,
0013,
ffdb,
000a,
0011,
0009,
000d,
fffd,
000d,
0016,
000b,
fffb,
fff8,
fff3,
000f,
000c,
0011,
000b,
fff4,
fffd,
0000,
0002,
000a,
000b,
fff4,
fff0,
fff6,
fffd,
0029,
001a,
000f,
fffd,
0019,
fff8,
0014,
0003,
fff7,
000e,
ffea,
fff9,
fffb,
000e,
0003,
fff8,
ffdd,
fff7,
0002,
0000,
ffdf,
ffff,
ffdb,
0000,
fff4,
ffed,
0011,
ffe1,
0000,
fff1,
0008,
0010,
0002,
fff3,
0010,
fffc,
ffe4,
0002,
fff9,
000b,
fff7,
ffed,
fff6,
ffd9,
fffb,
000f,
0001,
0005,
fff7,
ffde,
fffe,
ffff,
fff3,
001b,
0012,
000a,
0011,
fff5,
0008,
0009,
fff0,
fffa,
0024,
0014,
0024,
ffe7,
ffdc,
0000,
0013,
0000,
0012,
0008,
0013,
0010,
000a,
0008,
ffdd,
0003,
000e,
fffe,
000b,
fffb,
ffe8,
000e,
000e,
ffee,
0002,
fffa,
fff4,
000a,
0008,
0016,
000d,
ffe9,
fff9,
fff4,
fff4,
fffe,
fff2,
fff8,
ffed,
ffe9,
0015,
0010,
ffff,
0007,
0012,
0016,
0015,
fff3,
0006,
ffea,
0003,
ffee,
0018,
fffc,
fff5,
000a,
0007,
001a,
fff9,
fffd,
0019,
fff6,
ffec,
0007,
000b,
0003,
0020,
fffe,
ffe0,
0011,
0016,
0016,
0003,
fff4,
ffe8,
0005,
fffe,
0016,
fff1,
0000,
0018,
fff2,
0016,
0011,
fff6,
fffa,
001a,
000c,
ffff,
fff4,
0010,
000b,
ffff,
0009,
fffc,
ffdd,
ffe9,
ffeb,
0007,
ffdb,
ffe1,
0001,
fff6,
0006,
fffc,
0001,
000c,
0014,
0004,
ffe7,
ffe7,
ffdf,
000b,
0007,
ffe9,
ffe8,
fffa,
ffee,
0015,
ffff,
0002,
0002,
fff1,
fff4,
0018,
fff2,
ffeb,
0017,
0001,
000b,
0006,
0011,
ffee,
fffd,
0011,
0008,
fff0,
fff4,
001b,
ffe8,
ffe8,
0015,
ffdf,
0003,
fff5,
0003,
fff4,
0010,
fff8,
ffea,
000e,
ffff,
0021,
000d,
0003,
0000,
fff4,
0010,
fff0,
ffe5,
0026,
000f,
fff4,
fffc,
0015,
0005,
0022,
0004,
0007,
ffec,
0011,
ffeb,
0011,
000d,
0009,
ffed,
0010,
fffc,
0013,
0016,
0001,
fffc,
000e,
ffec,
0003,
ffeb,
ffdb,
0007,
0003,
fff2,
fff1,
ffef,
0010,
0003,
fffe,
000e,
ffdd,
fff9,
0016,
fffd,
000f,
001a,
000c,
0007,
ffea,
0005,
fff6,
ffef,
0004,
ffe7,
0002,
ffdb,
fff0,
0001,
fff5,
ffe4,
000d,
ffed,
ffec,
ffdf,
000c,
fff5,
0005,
fff0,
fff1,
fffc,
0004,
ffff,
ffff,
ffea,
ffe8,
fffd,
0005,
000a,
fffa,
0003,
0007,
ffee,
0000,
ffea,
0010,
fff7,
ffe6,
fffd,
0011,
0000,
000f,
000e,
0008,
ffef,
000c,
0015,
ffee,
ffe4,
001c,
ffe9,
0017,
0005,
fff3,
fff1,
0002,
0001,
ffe9,
000e,
0008,
ffe7,
0002,
0007,
001c,
000c,
fffe,
ffe9,
003e,
000a,
0009,
fffb,
ffe2,
0012,
0009,
ffef,
ffea,
0021,
fff1,
001d,
001b,
000b,
ffec,
ffef,
0017,
ffff,
ffe0,
001b,
0002,
0001,
fffb,
fff7,
ffdf,
0024,
000f,
003a,
000b,
0010,
000c,
000e,
0006,
0014,
ffe2,
0000,
000c,
0008,
fff9,
ffed,
0008,
0017,
0011,
0009,
fffe,
001e,
0023,
0021,
0000,
ffff,
fffb,
0012,
fff2,
001a,
ffea,
fffa,
0001,
0017,
fff0,
0014,
0005,
fff3,
ffed,
fff5,
0014,
0006,
fff8,
0002,
ffeb,
fff6,
ffe6,
ffdd,
ffe8,
ffed,
fff7,
fff0,
fffd,
0003,
0000,
0004,
fff3,
0000,
0013,
0000,
fffa,
0009,
0003,
ffee,
fff8,
000c,
001d,
0003,
001c,
ffee,
ffe9,
0000,
000b,
0017,
fffc,
fffd,
fffd,
0007,
0017,
0000,
ffc2,
0016,
0012,
fff7,
000b,
fff2,
fff1,
0005,
fff9,
0007,
0002,
fff8,
fff9,
fff9,
0006,
000d,
001d,
001a,
0007,
fff1,
000e,
fff6,
fffc,
fffd,
001b,
0004,
ffff,
0013,
ffee,
fff7,
0018,
0012,
002b,
fffc,
fffd,
fff0,
000b,
0010,
0007,
000a,
fff6,
ffec,
0018,
ffef,
ffff,
fffa,
fff4,
0014,
001b,
fff8,
0001,
fffa,
fff7,
000a,
fff8,
ffd0,
fff7,
fff7,
fff6,
0004,
ffea,
000e,
ffce,
0001,
0004,
fff1,
fff0,
000e,
0018,
0004,
ffdf,
fff1,
002f,
0003,
fff1,
ffec,
0003,
ffe7,
ffcd,
0003,
ffde,
fffb,
000a,
ffde,
0012,
fff4,
fffd,
0006,
0016,
0001,
fff6,
ffe1,
0014,
0012,
0003,
000b,
fffb,
ffff,
000b,
fff6,
0016,
0019,
ffef,
0009,
0002,
000f,
fff1,
0002,
fffc,
0000,
002f,
001e,
001c,
000c,
ffff,
ffdd,
ffeb,
0003,
ffeb,
000b,
fff6,
ffed,
0000,
0002,
ffd4,
ffe8,
0028,
fffe,
0029,
ffe9,
ffdd,
ffde,
0019,
0007,
fff6,
ffe2,
ffd7,
fff9,
0000,
0013,
0000,
fffe,
0020,
0006,
0009,
ffec,
ffe6,
fffc,
fffb,
000d,
ffeb,
000b,
001c,
ffe4,
0003,
ffdc,
ffee,
0008,
fff6,
fffb,
fffd,
ffea,
0000,
0002,
0006,
ffe4,
ffdd,
ffde,
0031,
0001,
000e,
fffe,
ffe8,
0009,
fff7,
fff4,
ffe4,
0012,
fff4,
fff1,
001b,
0007,
ffdc,
fff9,
001d,
000b,
ffff,
fff2,
ffe9,
0012,
0008,
001c,
fff4,
000e,
0008,
0012,
fff8,
0014,
fff3,
0016,
0025,
fff0,
000f,
002b,
0000,
ffe5,
0025,
ffeb,
0011,
fff4,
fff1,
0021,
ffec,
002e,
0013,
0013,
fffe,
ffdd,
fff7,
0032,
000f,
0000,
0015,
0002,
0004,
ffd8,
0008,
0016,
000c,
0011,
0021,
0020,
fff1,
ffe3,
0000,
000c,
0004,
0011,
ffee,
0000,
0002,
ffe3,
ffe8,
000d,
ffe7,
001a,
fff2,
0000,
000d,
ffe4,
fffc,
0011,
fff8,
0001,
0007,
fff4,
000c,
000b,
fffe,
fff3,
fff9,
0000,
ffd7,
ffef,
0014,
ffe3,
ffee,
0026,
ffde,
0002,
0008,
ffe8,
000b,
000b,
ffe7,
0009,
0020,
ffec,
ffe0,
ffe5,
0016,
ffff,
001d,
0015,
fff6,
ffdb,
fff8,
fff6,
000c,
ffe7,
000c,
0012,
000f,
0013,
0009,
0004,
fff9,
ffec,
fff1,
001b,
ffeb,
ffe0,
ffec,
ffff,
fff3,
0001,
fff0,
002d,
ffe5,
0004,
fffb,
fff4,
000c,
fffb,
0002,
000c,
0002,
000b,
ffe3,
ffe1,
ffe7,
ffe7,
ffee,
0036,
000c,
ffe4,
0012,
000f,
fff2,
0012,
fff8,
ffee,
ffed,
0002,
ffdb,
0021,
ffcf,
0006,
0003,
0016,
ffe6,
000f,
000d,
fff8,
000e,
fff7,
ffec,
000f,
0005,
0012,
ffed,
fffe,
0007,
fffb,
000f,
000a,
0000,
000c,
002e,
ffef,
0000,
0012,
0001,
0033,
000e,
0021,
fffa,
0009,
fff8,
000b,
0015,
ffff,
0006,
ffe6,
0009,
0016,
fffb,
fff7,
fffa,
0022,
001f,
0015,
fffd,
fffb,
fffe,
0002,
ffeb,
0015,
0016,
fff5,
0002,
0011,
ffed,
001b,
0000,
0005,
0017,
0024,
fff0,
0006,
fff0,
0007,
000a,
0023,
001b,
ffeb,
0011,
0012,
fff6,
0010,
0009,
0015,
000a,
001d,
fff8,
0003,
fff3,
fffe,
0015,
ffec,
fff7,
ffe7,
fff3,
fffe,
fff5,
fff4,
000a,
0011,
fff9,
0011,
0007,
000a,
fff5,
0009,
0023,
000d,
fff6,
0011,
fffd,
fffc,
fff9,
fff9,
ffec,
001e,
0013,
0013,
fff8,
fffb,
000f,
fffc,
ffe6,
ffff,
fff7,
0009,
0019,
000f,
000c,
ffe5,
0003,
0022,
0009,
ffee,
001e,
fffa,
001d,
0008,
000b,
fff7,
fffa,
000a,
0011,
ffee,
ffff,
0009,
ffff,
0001,
ffff,
ffed,
fff8,
001c,
0007,
0005,
000f,
0007,
0008,
001c,
0023,
0004,
0015,
fff9,
0005,
0010,
001b,
0020,
fffb,
fffe,
0017,
0017,
fffa,
ffea,
0013,
fff4,
0012,
0004,
0001,
fff7,
0000,
0007,
fffc,
0019,
0003,
001e,
001d,
fff7,
0013,
ffde,
001a,
0013,
ffe9,
0002,
000c,
fff6,
0013,
0009,
0007,
0000,
fff4,
0017,
0004,
fff0,
0014,
fff5,
000d,
ffe7,
ffff,
fff3,
fff4,
ffec,
ffea,
0009,
fff0,
000e,
fffc,
ffe4,
fffc,
fff5,
fff8,
0001,
0004,
fff8,
0020,
ffef,
fff6,
fff0,
0005,
0004,
0012,
000c,
ffef,
ffe4,
ffe2,
fff3,
ffea,
fff8,
fff5,
fff2,
fffc,
000d,
0015,
000a,
fffe,
001c,
ffec,
ffff,
ffd6,
0006,
0000,
001f,
ffea,
ffe3,
0002,
0001,
000f,
000b,
ffff,
0017,
fffd,
0000,
ffee,
000e,
fffa,
000b,
000f,
0015,
ffe6,
0005,
fffd,
fff9,
0027,
0013,
fffb,
ffe6,
0017,
0004,
000d,
0008,
fff1,
0006,
ffec,
0010,
ffe7,
0001,
ffec,
0020,
000d,
ffeb,
0014,
000c,
0013,
000e,
0000,
0002,
0019,
fff9,
0008,
0006,
ffe3,
ffed,
0002,
fff5,
ffe9,
fff0,
0001,
fff3,
000d,
fffb,
000c,
0006,
ffef,
ffed,
ffe2,
000b,
0014,
ffec,
000d,
fff7,
fff6,
0014,
ffe7,
fff9,
fff0,
ffe4,
0019,
0012,
ffe5,
fff4,
fff6,
000e,
fff8,
ffde,
0007,
fffc,
0016,
0027,
ffd2,
0009,
fff5,
fff9,
fff4,
fff9,
fffe,
0005,
fffd,
fff6,
0007,
ffe5,
fff2,
fffe,
000f,
001e,
ffe2,
0015,
001d,
000e,
0010,
fff5,
fff9,
0000,
0001,
fff8,
000c,
0003,
0003,
0005,
fff1,
000a,
0014,
ffff,
001a,
001d,
fffd,
0015,
ffee,
001a,
ffee,
ffec,
ffea,
0001,
fff5,
0011,
0005,
fff4,
000f,
0002,
fff4,
0018,
000f,
fff9,
0001,
0000,
001b,
0000,
000e,
000b,
0004,
fffc,
fffc,
0000,
0011,
ffef,
0011,
fffc,
ffec,
0010,
0001,
0017,
0011,
0018,
ffe7,
fff4,
0003,
0008,
ffd9,
0009,
0011,
001f,
0015,
0009,
0007,
000b,
ffec,
fff9,
0000,
000a,
000e,
0033,
fffc,
0013,
000b,
001c,
ffe1,
0011,
ffff,
fff0,
0015,
0021,
ffdc,
fff3,
fff0,
0027,
0011,
001e,
001f,
0003,
0013,
000a,
ffea,
001b,
fff7,
fff7,
001c,
0013,
0014,
000d,
0000,
fffd,
0016,
ffcb,
fff9,
0016,
fffa,
001a,
ffff,
000a,
ffe1,
fff7,
ffed,
0010,
0003,
fff6,
fff9,
ffeb,
fff4,
0006,
ffe7,
001a,
fffb,
0006,
0002,
0009,
000f,
000c,
000d,
fffc,
fff5,
fff0,
0003,
ffef,
ffe5,
0000,
fffb,
ffff,
ffef,
0001,
000a,
000e,
fff6,
0002,
fff1,
fffc,
0000,
fff0,
fffa,
0014,
fffd,
fffb,
000e,
0000,
ffde,
000f,
0002,
0001,
0018,
0037,
ffec,
0003,
0007,
ffe7,
0014,
0017,
0010,
000e,
fffd,
0012,
0001,
0020,
ffe0,
0006,
000a,
0007,
ffed,
001f,
001b,
0002,
0033,
ffe1,
0004,
0012,
0003,
001a,
fff6,
ffdd,
fff7,
001c,
0021,
fff4,
fff1,
fff2,
0028,
001c,
000e,
0004,
0002,
0006,
0006,
0003,
fff7,
ffe4,
001d,
fff1,
ffef,
ffef,
ffee,
000a,
0004,
fff2,
fffe,
0011,
fff8,
0005,
0006,
ffe6,
ffeb,
ffed,
0000,
ffe4,
fffc,
000f,
0002,
000b,
ffdf,
ffe1,
ffd9,
fff8,
fff0,
fff0,
0009,
000e,
0024,
0001,
fff0,
ffff,
0000,
fff9,
000d,
fff1,
000e,
fffb,
000c,
fffc,
fff6,
fff6,
ffe0,
0018,
000e,
fff8,
ffdb,
ffe7,
fff0,
003a,
0016,
fff5,
001e,
fff2,
000a,
ffee,
0002,
0003,
fff8,
0000,
001e,
ffef,
ffee,
ffd9,
000a,
0038,
fff3,
0003,
0016,
0002,
fffe,
ffd0,
fff9,
0006,
0009,
0017,
fff8,
fffd,
0017,
0007,
fff3,
ffe3,
fff1,
0008,
0015,
ffe8,
ffd8,
0018,
0010,
ffec,
0003,
ffd7,
fffe,
ffda,
fff1,
ffe6,
fff8,
fff4,
0008,
000a,
fff1,
0000,
ffee,
001a,
000d,
ffe9,
fff0,
ffce,
0008,
ffef,
000d,
fff8,
ffd7,
ffe5,
0007,
0002,
0000,
ffeb,
fff7,
fff4,
fff6,
ffea,
fff9,
0004,
0011,
ffe9,
0008,
0013,
fff8,
ffe5,
0019,
ffec,
0006,
fff8,
ffee,
0002,
001a,
ffe9,
000a,
fff2,
0011,
000a,
fff9,
fff8,
0000,
fff7,
001a,
fffd,
0009,
fffb,
fffd,
fff2,
fffd,
fff8,
fff3,
fff5,
000c,
001d,
fff4,
000d,
0008,
ffe3,
0019,
fffd,
fffb,
001e,
ffe4,
000e,
ffef,
000f,
0014,
0001,
fff1,
0022,
0003,
fffa,
ffe3,
ffd9,
ffff,
fff2,
0004,
001c,
fff5,
001d,
001b,
fffa,
0008,
ffec,
0002,
0007,
fff5,
fffb,
fffb,
fff7,
ffee,
0010,
ffe8,
0000,
ffe3,
000b,
0012,
0017,
0015,
0011,
0011,
001e,
001d,
000f,
0003,
0002,
000e,
0019,
0012,
0015,
0006,
0019,
001a,
fff7,
fff6,
0014,
fff6,
ffef,
0006,
000b,
0016,
fff2,
000e,
000f,
fffa,
ffeb,
000e,
fff9,
000f,
fff0,
ffeb,
fff8,
0011,
000e,
fff6,
000a,
ffff,
0005,
000e,
fff0,
000b,
0015,
fff7,
0010,
0015,
0000,
fffd,
ffe8,
ffec,
0009,
0009,
000f,
fff9,
fffd,
ffff,
fff2,
ffea,
fff6,
ffea,
fffc,
ffeb,
ffea,
0010,
fffe,
fffb,
0003,
0013,
000a,
0000,
ffeb,
0000,
000f,
fff2,
000b,
fffc,
fffa,
ffed,
0014,
0012,
fff3,
0011,
fff1,
0007,
ffec,
fff1,
fff3,
0014,
ffe9,
fffc,
ffea,
0000,
fffd,
ffed,
0015,
ffef,
ffe9,
ffeb,
ffee,
ffec,
fff7,
fff8,
0014,
0017,
ffec,
0012,
0002,
0008,
0016,
fffc,
0001,
ffef,
ffed,
0010,
0010,
fff4,
0009,
0002,
ffff,
0015,
fff4,
0009,
ffff,
ffed,
ffeb,
fff5,
0015,
0005,
0002,
0009,
fff4,
0016,
ffe9,
0002,
fff0,
0003,
ffea,
000f,
000d,
0015,
0011,
0006,
ffea,
ffea,
fff7,
fff4,
ffef,
000b,
ffff,
fff3,
000c,
ffea,
0002,
0009,
ffea,
fff3,
fff1,
ffeb,
ffff,
0012,
0007,
ffeb,
fff8,
fff6,
ffef,
fff6,
fff2,
fff6,
0002,
0005,
000d,
ffed,
0012,
fff7,
fff0,
ffed,
000b,
0003,
0013,
ffec,
fff8,
fff8,
fff8,
0011,
fff4,
ffe9,
fff0,
fff2,
fff3,
0005,
ffee,
fff4,
fffa,
fffe,
fff1,
fff8,
fff2,
fffa,
0011,
000a,
ffee,
0014,
ffed,
0000,
fffc,
fffd,
fff8,
0003,
fffc,
ffed,
000e,
ffec,
0007,
fff2,
fffc,
0009,
000e,
0014,
ffe9,
0011,
fff6,
fffd,
fffc,
0007,
fffa,
ffed,
0010,
fff3,
0001,
fff4,
ffef,
0003,
0012,
0014,
fff3,
0016,
0015,
fff1,
ffff,
fffd,
0000,
0012,
0010,
0008,
fff3,
fffa,
ffec,
0003,
0000,
fff6,
0013,
0000,
0008,
fff1,
fff3,
ffec,
ffe9,
0001,
fff6,
ffeb,
ffe8,
fff8,
000b,
ffed,
0011,
0008,
ffec,
0006,
0011,
fffd,
000a,
0016,
0009,
0000,
0009,
fffa,
fff0,
fffa,
0007,
0002,
0009,
000b,
0000,
ffef,
0013,
0001,
ffed,
000d,
0012,
fffd,
ffed,
fff6,
0008,
fff8,
0012,
000c,
0002,
0011,
0012,
0009,
fff0,
000a,
ffec,
0004,
fff3,
0010,
0014,
ffef,
0009,
fffb,
ffec,
fff5,
ffec,
0005,
ffef,
ffff,
000b,
fff7,
fff9,
ffea,
0000,
fffe,
000e,
ffee,
fffe,
ffed,
fffc,
fffb,
fff5,
0004,
fff5,
ffec,
fffc,
ffe8,
fff3,
0000,
0008,
fff5,
0003,
0004,
ffea,
000f,
ffe8,
000d,
ffea,
000d,
fffe,
fffd,
ffeb,
fff0,
0012,
fff7,
000d,
0000,
fff8,
fffa,
0010,
ffec,
0008,
fff3,
ffea,
0014,
fff8,
fff0,
ffff,
ffef,
0007,
fff3,
0013,
0013,
0006,
ffea,
0009,
0013,
000f,
000a,
0005,
0006,
ffed,
ffed,
fff0,
0000,
0009,
ffef,
0002,
fffb,
fff7,
ffea,
fffd,
0000,
fffb,
0000,
0010,
ffef,
0004,
fffb,
0010,
fff4,
fff8,
0000,
000b,
0010,
000e,
0000,
0010,
000a,
0003,
0000,
0001,
0009,
ffe8,
fff6,
fffa,
ffeb,
ffea,
ffe8,
fffe,
ffe9,
fff5,
0017,
0005,
fff5,
000b,
0014,
ffff,
0002,
0011,
fff8,
ffef,
0013,
ffe9,
0000,
0005,
ffe9,
ffe8,
0015,
ffee,
ffea,
0016,
fff0,
0016,
ffea,
fffa,
fff5,
0004,
0012,
fff9,
0015,
fff9,
ffed,
ffee,
0000,
0000,
0000,
fffc,
fff9,
fffe,
000e,
0000,
0016,
ffec,
ffff,
0004,
ffff,
fffb,
fffd,
ffff,
0007,
0014,
fffe,
000f,
fff6,
fff8,
fff1,
fff4,
0007,
ffee,
0004,
000f,
0002,
0003,
0002,
ffea,
fff0,
0009,
0006,
000b,
ffff,
fff3,
ffe9,
000f,
fffd,
000d,
fffd,
ffed,
0007,
0010,
fff8,
0006,
fff3,
ffe9,
000b,
000c,
0013,
0000,
fff9,
fff1,
0008,
0004,
fff6,
ffeb,
000c,
fffb,
fffb,
0010,
fff4,
fffa,
fffe,
0011,
0000,
fff6,
ffec,
0008,
fffd,
0005,
000e,
0004,
0009,
000a,
fff2,
000b,
000c,
fff2,
0001,
000a,
fff8,
fff1,
000b,
fff1,
000b,
fff1,
000b,
0009,
000e,
0007,
0015,
fff0,
fffc,
fff3,
0000,
0007,
fff9,
ffea,
fff1,
0007,
ffed,
fffc,
fff6,
0012,
0012,
fffd,
000a,
0009,
000e,
ffeb,
0007,
ffed,
ffef,
fffa,
ffff,
000b,
ffea,
fff8,
fff5,
000d,
fff9,
fff5,
ffeb,
000a,
0000,
ffeb,
fffe,
000c,
ffff,
0014,
fff4,
fff7,
fff4,
fff0,
0002,
fff3,
0010,
fff7,
fff4,
fff1,
ffe9,
0002,
0000,
fff1,
fff4,
fff8,
0005,
0005,
000f,
fffb,
0004,
000d,
0016,
0000,
0000,
0010,
000b,
000b,
001c,
0008,
fffb,
0014,
0000,
0002,
0016,
ffea,
0010,
0016,
0005,
fff6,
0011,
0009,
001e,
000a,
0022,
fffb,
0002,
ffe8,
0004,
0009,
fffa,
fff1,
0009,
0015,
0024,
0000,
ffff,
fffb,
fffa,
0010,
ffff,
000d,
0006,
ffe8,
001c,
0005,
fff6,
fffe,
0010,
fffa,
fff6,
fff9,
ffff,
0008,
0005,
fffe,
0023,
0004,
0010,
fffd,
0011,
0008,
0018,
fff1,
0009,
0005,
001f,
0009,
fff6,
0000,
ffec,
0020,
000b,
000d,
fffc,
fff6,
ffff,
000a,
ffef,
000d,
001c,
ffe9,
ffee,
0007,
000d,
0008,
000e,
0000,
0007,
001c,
fff5,
fffe,
0000,
0011,
0009,
fff2,
ffea,
fff5,
ffff,
001b,
fff2,
0012,
fff9,
000b,
000e,
fff4,
ffe2,
fff5,
fff3,
0011,
fff8,
000b,
fff7,
0003,
fffd,
ffdc,
ffef,
fff6,
000a,
0000,
0000,
ffeb,
0000,
fff9,
ffe8,
0000,
fff8,
0017,
ffef,
0004,
fff4,
000d,
ffed,
fffc,
0027,
fffd,
fff8,
fff1,
fffa,
ffef,
0004,
ffeb,
fff6,
ffef,
fffa,
0000,
0010,
fff2,
fffa,
ffe2,
ffea,
000a,
0006,
ffea,
fffa,
0000,
0018,
0011,
fff3,
ffeb,
fff9,
fff7,
0018,
0005,
fffa,
ffe9,
fffe,
ffe9,
fff5,
ffe4,
ffe2,
ffed,
0022,
fffe,
0003,
fffb,
fff9,
ffdf,
fff9,
0001,
fff7,
fff3,
fff5,
fff0,
fffb,
fff6,
000c,
0017,
fffa,
ffeb,
ffff,
fffd,
ffee,
0003,
000c,
fff1,
000e,
000e,
fff7,
ffea,
ffeb,
0005,
fff8,
fffc,
000a,
fff2,
fff0,
0000,
000b,
000d,
0003,
fff3,
000b,
ffff,
ffff,
001b,
fff9,
0020,
fff0,
0010,
0005,
fffb,
ffe4,
0014,
fff8,
0001,
fff5,
fff2,
0002,
000b,
0015,
fff1,
fff2,
000e,
0018,
fffe,
fffb,
fff9,
000e,
fff5,
0001,
0028,
0000,
ffef,
ffff,
0004,
ffed,
fffc,
0009,
0009,
fffd,
0012,
0005,
0011,
fff3,
001c,
0008,
fffb,
ffe6,
0014,
0001,
0000,
000e,
0001,
fff9,
0004,
0004,
0006,
0006,
0005,
0012,
0002,
ffe9,
ffe6,
0013,
fffd,
0015,
0001,
fff9,
fffd,
fff5,
0000,
002a,
0007,
0012,
0008,
0014,
000f,
fff5,
000e,
000e,
000d,
000d,
0003,
ffe5,
ffff,
ffea,
0000,
0025,
001e,
fff7,
0010,
fff4,
ffee,
0013,
fffa,
fff8,
fff5,
fffc,
ffe7,
ffe3,
0006,
000b,
ffe8,
000c,
0015,
0008,
000e,
0015,
fff3,
000b,
ffcc,
fff9,
fffc,
0011,
0015,
000c,
fffa,
0004,
002d,
0027,
0003,
000e,
0016,
0001,
000b,
0014,
fff3,
000f,
0026,
fffd,
0012,
000c,
000c,
fff3,
0000,
0021,
fffa,
0007,
fff8,
0001,
0001,
000b,
ffeb,
fff2,
0027,
fff3,
0002,
fff5,
0013,
001b,
fff6,
0001,
0020,
0014,
fff1,
000c,
fff5,
fff0,
0001,
000e,
fffc,
ffe6,
001a,
fffb,
0010,
0009,
0009,
fffb,
fffc,
001a,
0016,
0015,
ffe4,
000a,
0006,
0019,
0014,
0004,
0001,
ffe9,
000e,
fff3,
ffe6,
ffed,
0009,
0011,
0007,
fffd,
fff0,
fff8,
ffff,
0008,
fffe,
ffdf,
ffef,
ffdd,
0019,
0002,
ffe4,
fff4,
0008,
fff5,
000c,
0010,
000c,
fff4,
ffeb,
ffed,
fffb,
fffc,
000e,
000a,
fff4,
fffa,
0006,
000b,
000c,
0016,
000d,
0019,
0005,
0004,
fff7,
0010,
0019,
fff4,
fffd,
ffeb,
0008,
fffc,
0020,
fff9,
000c,
0013,
0002,
0012,
0006,
fffd,
000f,
0011,
002b,
fff0,
fff3,
fffb,
fffc,
0000,
0005,
0008,
fff2,
000e,
0003,
0000,
0000,
0001,
0002,
fffc,
000c,
ffee,
000a,
0014,
fff6,
fff3,
fff1,
ffcf,
ffef,
fff0,
ffe1,
ffff,
000d,
fffd,
ffff,
fffb,
0007,
ffd1,
ffe6,
0003,
fffb,
fff9,
000b,
ffe3,
fffa,
0004,
000a,
0020,
fffc,
0009,
0000,
ffe9,
fff4,
ffe7,
fff8,
0001,
0005,
000a,
0003,
0005,
0014,
0001,
000d,
0013,
0009,
0009,
ffe5,
0007,
0007,
001b,
0004,
ffee,
0000,
0019,
fffd,
000a,
fff1,
001d,
000c,
0004,
0000,
0003,
fffb,
fff3,
fff0,
0008,
fffe,
fff6,
fff1,
001c,
fff7,
0016,
0013,
fff7,
000a,
001c,
000a,
fff4,
ffe6,
0014,
ffe8,
fff5,
fffa,
0000,
fff1,
001b,
fffe,
0010,
fffc,
0006,
0012,
fff1,
000e,
fff4,
0010,
fff2,
0002,
ffee,
0007,
0012,
fff6,
0002,
fff3,
000c,
fff8,
0007,
000a,
ffee,
0010,
fff8,
000b,
fff3,
fff2,
ffeb,
0011,
0017,
ffe6,
ffe3,
000d,
fff9,
ffed,
0003,
fffe,
fffa,
ffff,
000a,
0016,
ffe5,
fffa,
0014,
0016,
fff9,
fffd,
fffb,
0003,
fff1,
ffe8,
0007,
ffee,
0008,
0015,
fff3,
fff3,
fff4,
fffb,
0007,
0004,
000d,
fff0,
000a,
000f,
0007,
0018,
0000,
fff2,
ffdc,
000b,
0011,
0017,
ffed,
0005,
fff6,
001e,
fff0,
ffee,
0002,
0007,
0018,
fffe,
0001,
fff9,
0006,
0013,
000b,
fff6,
fffa,
0000,
fff5,
fffe,
fff7,
fff0,
ffed,
0007,
fffd,
fff8,
000f,
0000,
000a,
ffef,
0010,
0016,
ffe5,
fffb,
fffe,
fffd,
fff5,
ffff,
000d,
fff7,
000e,
ffef,
fffe,
000e,
0007,
ffea,
fff6,
ffff,
0011,
fffe,
fffe,
fff8,
0006,
ffff,
fff8,
0008,
fffd,
fff9,
0019,
0016,
fffb,
fff9,
000f,
000f,
0015,
0008,
fff0,
0003,
0014,
fff5,
fff5,
0005,
fff5,
000b,
ffe8,
000c,
000a,
0018,
0003,
0007,
fff2,
0022,
ffea,
fffe,
fff2,
fff7,
0028,
0015,
0011,
fff4,
0007,
0000,
0019,
000a,
000e,
0007,
0011,
fff4,
ffff,
000f,
000e,
0004,
001f,
0015,
0004,
0001,
ffed,
fffe,
fff1,
fffc,
fff4,
0016,
000f,
ffe2,
0007,
fff2,
fff4,
fffa,
ffe2,
fffc,
fffa,
0002,
fffa,
ffe8,
fffd,
fff4,
fffe,
000d,
fff8,
ffef,
0001,
0001,
fff1,
0007,
fffc,
ffe2,
0007,
0016,
fffd,
000d,
0004,
fff5,
fff5,
ffe9,
0005,
001c,
0006,
000a,
0004,
000a,
0003,
0006,
0009,
0014,
0013,
0005,
0008,
0018,
0015,
fff5,
ffeb,
ffff,
0014,
0015,
0021,
001d,
ffeb,
fffe,
ffe2,
001c,
0014,
ffeb,
000e,
000e,
0012,
ffe8,
fff3,
001b,
000c,
ffed,
ffff,
fffe,
0015,
ffe2,
fff0,
0017,
0014,
ffef,
ffe9,
fff6,
ffee,
ffe5,
fffe,
ffdc,
0014,
000c,
fff1,
0005,
0001,
fffc,
000f,
fffd,
ffe8,
fffd,
0007,
0014,
fff4,
0016,
ffdb,
ffe9,
000e,
ffed,
0001,
000d,
ffec,
fff7,
ffdf,
0011,
ffe1,
fff1,
ffe2,
001a,
0008,
fff9,
0001,
fff9,
fffa,
ffed,
ffe6,
fffc,
0018,
0016,
fff2,
001e,
ffef,
fff4,
ffec,
0022,
001c,
0018,
fff4,
001e,
fff1,
000f,
ffff,
0009,
fffd,
0021,
ffeb,
fffa,
0008,
fff8,
0009,
fff1,
001b,
ffed,
0003,
0026,
0017,
000b,
ffdf,
0010,
fff6,
0007,
000d,
0001,
000b,
fffa,
0035,
0004,
0013,
fffb,
0001,
0003,
0002,
fff8,
ffd9,
000f,
0009,
0011,
fff6,
fffa,
0006,
001f,
0006,
ffe6,
0012,
ffef,
fff3,
ffe4,
ffef,
ffd3,
ffec,
0005,
ffec,
fff7,
ffdc,
0000,
0006,
0022,
0001,
0006,
fff9,
ffde,
fff7,
0002,
fff4,
ffff,
0014,
000b,
0013,
0008,
ffe7,
fff3,
fffc,
ffee,
0002,
ffee,
0009,
fffb,
fff4,
0003,
ffea,
ffeb,
0000,
0002,
001a,
000e,
0008,
0013,
fff8,
000e,
ffee,
0004,
ffe8,
fffd,
0002,
0007,
0006,
fffd,
ffe5,
fff1,
ffe9,
fffd,
000b,
fff0,
fff8,
0004,
0003,
ffe7,
0007,
ffd7,
ffed,
fffb,
0020,
fff6,
0006,
ffee,
0004,
0000,
0003,
0001,
0011,
fffe,
fff9,
ffdb,
0009,
ffeb,
001f,
fff6,
0001,
ffec,
000a,
0000,
fff8,
0016,
ffe4,
ffe2,
000c,
000c,
0001,
fff7,
ffeb,
ffdb,
0007,
0004,
fffe,
ffe3,
0015,
0014,
ffe5,
ffdd,
